<unk>	0
<s>	0
</s>	0
.	-2.6146
'	-3.1078
,	-3.34868
▁I	-3.4726
s	-3.56902
?	-3.74593
▁you	-3.75372
▁the	-3.99101
▁to	-4.08461
t	-4.15111
▁a	-4.18426
▁it	-4.57764
...	-4.74424
▁of	-4.83987
▁You	-4.87083
▁that	-4.88168
▁and	-4.91622
▁in	-4.96314
!	-4.97721
▁me	-4.98309
m	-5.04464
re	-5.19479
▁is	-5.20941
▁know	-5.32435
▁	-5.35335
▁for	-5.35404
▁What	-5.42096
▁don	-5.44408
▁have	-5.44909
▁do	-5.47469
▁be	-5.47739
▁--	-5.49138
▁was	-5.49656
▁your	-5.5093
▁this	-5.52779
▁on	-5.5423
▁we	-5.60422
▁my	-5.60906
▁what	-5.61635
▁he	-5.64503
▁with	-5.65142
▁not	-5.65387
ll	-5.66755
d	-5.68763
▁can	-5.69815
-	-5.72238
▁It	-5.75361
▁like	-5.82444
▁about	-5.84437
▁are	-5.87254
▁out	-5.89017
▁get	-5.92059
▁just	-5.92381
▁all	-5.9404
▁No	-5.94372
ve	-5.95452
▁him	-5.99057
▁up	-6.02034
▁here	-6.02348
▁want	-6.02371
▁He	-6.03285
u	-6.03953
▁We	-6.04687
▁think	-6.06212
▁got	-6.09433
▁The	-6.10108
▁That	-6.104
ing	-6.10799
▁they	-6.1344
▁And	-6.14181
▁there	-6.18151
▁one	-6.19043
▁but	-6.24088
ed	-6.25654
▁her	-6.261
▁so	-6.28217
▁go	-6.28461
▁at	-6.29675
▁right	-6.31738
▁if	-6.31974
▁going	-6.32114
▁But	-6.33757
▁no	-6.39266
▁see	-6.45093
▁Well	-6.45554
▁Oh	-6.4682
▁she	-6.47413
>	-6.4839
▁...	-6.52378
▁an	-6.56261
▁his	-6.5721
▁time	-6.58033
▁did	-6.58078
▁How	-6.58931
▁Yes	-6.59432
▁A	-6.59462
▁from	-6.60481
▁now	-6.60787
▁been	-6.60793
▁They	-6.6122
--	-6.6172
▁Yeah	-6.64394
▁-	-6.64554
▁were	-6.65639
▁back	-6.66738
▁say	-6.68214
▁tell	-6.70093
▁some	-6.71187
▁or	-6.71661
▁Why	-6.72473
▁didn	-6.72488
▁would	-6.72513
▁mean	-6.7288
▁will	-6.74602
▁us	-6.74698
▁could	-6.75071
▁good	-6.75543
▁man	-6.75762
▁had	-6.75982
▁them	-6.77035
▁who	-6.78252
▁So	-6.80224
▁She	-6.80515
▁as	-6.8356
er	-6.83791
▁when	-6.83972
▁way	-6.84389
in	-6.84961
▁something	-6.86604
▁never	-6.86851
▁come	-6.88298
▁how	-6.88742
▁take	-6.89165
y	-6.91944
▁too	-6.94126
▁make	-6.94991
▁This	-6.97301
▁If	-6.97501
▁Don	-6.9752
▁over	-7.01511
▁down	-7.01649
▁little	-7.0182
▁more	-7.02623
▁thing	-7.03131
▁gonna	-7.0432
▁""	-7.04456
▁said	-7.06087
▁need	-7.06245
▁Do	-7.09423
▁off	-7.09585
▁really	-7.09783
▁any	-7.11579
n	-7.11777
▁people	-7.12465
▁There	-7.12534
I	-7.13417
</	-7.13687
▁by	-7.15195
▁<	-7.15463
▁"	-7.15598
a	-7.17766
▁much	-7.17776
▁our	-7.1805
▁then	-7.18752
▁Mr	-7.18819
▁look	-7.20263
▁has	-7.2034
▁only	-7.21739
▁'	-7.22305
▁let	-7.22645
e	-7.23086
▁why	-7.23561
▁Where	-7.23634
▁should	-7.2479
▁very	-7.25468
ly	-7.26702
▁where	-7.26792
▁talk	-7.29826
▁thought	-7.30558
▁Who	-7.3057
▁My	-7.31967
▁anything	-7.32312
▁love	-7.32398
▁sure	-7.33129
▁Just	-7.33889
▁Now	-7.34386
▁two	-7.3445
▁Not	-7.35793
▁into	-7.35929
r	-7.36782
▁even	-7.38447
▁give	-7.38987
▁doing	-7.39578
▁work	-7.40117
▁night	-7.40479
▁life	-7.4196
▁find	-7.42786
▁other	-7.42993
▁ever	-7.44148
▁call	-7.44382
▁am	-7.44911
▁money	-7.45214
▁told	-7.45591
o	-7.46012
▁than	-7.46223
▁around	-7.46345
▁won	-7.47419
▁before	-7.48103
▁guy	-7.49874
▁must	-7.51458
▁still	-7.51671
▁put	-7.53637
▁things	-7.54148
▁Let	-7.54355
▁help	-7.54958
▁long	-7.55141
""	-7.5552
▁better	-7.55993
▁believe	-7.56327
▁All	-7.56493
▁sorry	-7.56506
▁years	-7.56732
▁day	-7.57921
▁sir	-7.58317
▁last	-7.58491
▁Are	-7.58733
▁Then	-7.5893
i	-7.59045
▁away	-7.59865
▁always	-7.59893
▁place	-7.60362
▁name	-7.60394
▁well	-7.60998
▁Maybe	-7.61749
▁first	-7.61833
▁Look	-7.62215
▁God	-7.63609
▁feel	-7.64779
▁again	-7.65284
▁these	-7.6609
▁Okay	-7.66201
▁old	-7.66693
▁kind	-7.66745
▁their	-7.66797
▁home	-7.67291
▁Did	-7.67663
▁nothing	-7.68121
▁In	-7.68435
▁those	-7.69272
▁doesn	-7.70928
▁lot	-7.71091
c	-7.71416
▁When	-7.71864
▁because	-7.721
p	-7.74603
▁Hey	-7.7555
▁Your	-7.7571
▁after	-7.76047
▁does	-7.76127
▁okay	-7.76493
▁understand	-7.76538
▁shit	-7.7657
▁Can	-7.76578
▁keep	-7.76966
g	-7.77843
▁bad	-7.78935
▁course	-7.79278
▁isn	-7.79309
b	-7.79457
al	-7.79879
▁girl	-7.80135
▁kill	-7.80184
▁talking	-7.80276
▁wouldn	-7.80435
▁else	-7.80976
▁dead	-7.82763
es	-7.82905
▁big	-7.83889
▁guess	-7.84
l	-7.84089
▁might	-7.84272
▁hear	-7.84636
▁wrong	-7.85078
▁made	-7.85474
▁car	-7.86315
or	-7.86632
en	-7.87121
▁everything	-7.87162
▁happened	-7.87601
▁wanted	-7.87679
▁great	-7.87831
▁hell	-7.88055
▁own	-7.88062
▁mind	-7.88091
▁S	-7.88179
▁ask	-7.88896
▁Good	-7.89443
▁real	-7.90365
▁yourself	-7.90591
▁remember	-7.90739
em	-7.9083
▁enough	-7.91446
▁Come	-7.92248
▁through	-7.92689
▁leave	-7.93645
▁job	-7.93832
▁care	-7.94652
▁done	-7.94774
▁house	-7.95189
."	-7.95298
:	-7.95343
▁wasn	-7.97962
▁gotta	-7.98222
▁came	-7.98609
▁three	-7.99001
▁ain	-7.99235
▁left	-7.99795
S	-7.9995
▁world	-8.00366
▁getting	-8.00552
;	-8.01543
▁father	-8.01559
▁maybe	-8.0157
▁fucking	-8.02097
it	-8.0223
▁saw	-8.02922
▁every	-8.03976
▁knew	-8.04087
▁new	-8.06177
▁being	-8.06214
▁another	-8.06243
▁trying	-8.06243
▁someone	-8.07482
▁fuck	-8.07528
▁went	-8.0759
▁room	-8.0777
▁For	-8.08152
▁friend	-8.08351
▁nice	-8.09288
▁heard	-8.09667
▁stay	-8.09744
▁C	-8.10188
▁whole	-8.10259
▁Get	-8.1151
▁live	-8.11581
▁To	-8.12025
le	-8.12738
▁seen	-8.13059
▁mother	-8.14517
A	-8.14818
▁same	-8.15222
▁Go	-8.15331
▁matter	-8.16625
▁fine	-8.17053
▁Of	-8.17132
▁idea	-8.17448
▁coming	-8.17728
▁stop	-8.17771
"""	-8.17932
th	-8.18047
▁boy	-8.18158
▁show	-8.18351
▁looking	-8.18398
▁haven	-8.18717
▁business	-8.19168
▁used	-8.19863
▁Sure	-8.19941
▁Right	-8.20728
▁killed	-8.2096
▁head	-8.21258
▁yes	-8.21707
▁best	-8.21845
▁guys	-8.21846
▁try	-8.22112
▁please	-8.22455
▁Because	-8.22518
▁Tell	-8.23042
▁Like	-8.23065
▁tonight	-8.242
v	-8.24401
▁called	-8.24907
▁many	-8.2492
▁myself	-8.25228
▁Thank	-8.2531
▁wife	-8.25335
▁run	-8.25643
▁found	-8.25723
▁woman	-8.26169
▁couldn	-8.26374
▁Uh	-8.27323
ri	-8.2789
▁pretty	-8.28383
▁play	-8.28616
▁hundred	-8.28767
▁men	-8.29188
▁start	-8.29639
▁saying	-8.29725
▁ya	-8.29947
on	-8.2999
▁stuff	-8.30186
▁few	-8.30895
▁ago	-8.32017
▁morning	-8.32684
▁point	-8.32712
▁may	-8.33279
▁wait	-8.3328
is	-8.33669
ra	-8.33797
▁already	-8.33833
▁together	-8.34265
▁while	-8.34274
▁yet	-8.34892
▁Please	-8.35502
▁hard	-8.35563
▁school	-8.36872
f	-8.36941
▁without	-8.37071
▁son	-8.37275
▁use	-8.37287
▁One	-8.37433
▁deal	-8.38255
▁next	-8.38698
ation	-8.38967
▁case	-8.39485
▁kid	-8.39663
▁huh	-8.40336
k	-8.40504
▁Have	-8.40868
▁took	-8.41066
ion	-8.41443
▁crazy	-8.41885
▁tomorrow	-8.41909
ers	-8.41915
▁minute	-8.42461
el	-8.42507
▁Nothing	-8.42572
▁problem	-8.42591
▁part	-8.42804
▁five	-8.42812
man	-8.42887
▁alone	-8.43076
▁yeah	-8.43705
▁days	-8.43705
▁re	-8.43759
ic	-8.4422
▁says	-8.44224
ro	-8.44276
▁hope	-8.4578
▁hate	-8.45951
▁baby	-8.46058
▁once	-8.46104
▁die	-8.4618
▁gone	-8.46407
▁afraid	-8.46747
▁meet	-8.47062
▁pay	-8.47368
▁read	-8.47587
▁most	-8.47829
▁Hi	-8.47938
▁since	-8.48357
you	-8.48496
▁today	-8.48963
▁Listen	-8.49855
▁supposed	-8.49914
▁ten	-8.50203
▁Or	-8.50338
▁hurt	-8.5041
▁face	-8.5067
▁such	-8.50923
and	-8.50945
▁happen	-8.51249
▁anyone	-8.51394
▁un	-8.51767
▁friends	-8.51978
▁year	-8.52017
▁worry	-8.52373
▁thinking	-8.52412
ting	-8.52523
▁which	-8.53051
▁word	-8.53306
▁Thanks	-8.53873
▁week	-8.53941
▁uh	-8.54072
ie	-8.54176
ar	-8.5421
▁under	-8.54509
▁Jesus	-8.54916
C	-8.55009
▁B	-8.55503
▁hand	-8.55603
an	-8.55899
▁As	-8.56409
▁story	-8.56414
▁far	-8.56665
T	-8.56743
est	-8.56857
▁Dr	-8.56966
▁wanna	-8.57103
▁probably	-8.57257
▁Me	-8.57823
▁question	-8.58101
▁end	-8.58613
▁thousand	-8.5885
▁until	-8.59438
▁sleep	-8.59449
▁de	-8.59758
▁half	-8.59844
▁rest	-8.59956
▁minutes	-8.60253
▁Will	-8.60258
▁true	-8.60463
▁phone	-8.60482
▁family	-8.60621
▁married	-8.60716
▁listen	-8.60792
▁Miss	-8.61045
▁New	-8.61184
▁town	-8.61403
▁John	-8.61497
▁working	-8.61769
▁trouble	-8.61914
▁somebody	-8.62079
▁bring	-8.62529
▁gave	-8.62754
li	-8.63065
▁hit	-8.63107
▁See	-8.63282
▁Be	-8.6359
▁brother	-8.63683
▁shot	-8.63732
?"	-8.64038
▁lost	-8.64117
up	-8.64152
▁door	-8.64443
ter	-8.64444
▁late	-8.64629
w	-8.65047
to	-8.65121
▁drink	-8.65154
▁"""	-8.65391
▁T	-8.65503
ce	-8.65636
▁least	-8.65682
▁Here	-8.65793
▁four	-8.65915
▁asked	-8.65926
h	-8.6625
▁G	-8.66422
▁turn	-8.66988
▁open	-8.67133
▁O	-8.67597
▁Take	-8.67617
il	-8.67652
▁set	-8.67657
▁Jack	-8.67771
▁different	-8.68931
▁wish	-8.68961
▁Wait	-8.69275
▁anyway	-8.69291
▁kids	-8.69306
D	-8.69423
▁Mrs	-8.69749
▁move	-8.70071
▁person	-8.70088
▁eat	-8.70381
▁D	-8.704
▁walk	-8.7048
▁exactly	-8.70492
▁having	-8.7075
▁twenty	-8.70766
▁Hello	-8.71091
▁change	-8.71338
▁six	-8.7169
▁chance	-8.72222
U	-8.72585
ir	-8.72651
▁side	-8.72653
▁gun	-8.72669
ment	-8.72801
▁close	-8.72844
ne	-8.73083
▁fuckin	-8.73135
▁each	-8.73156
▁young	-8.73324
▁makes	-8.73561
▁With	-8.73705
▁aren	-8.73872
▁heart	-8.74045
▁mine	-8.74154
▁anymore	-8.74161
la	-8.74559
▁Really	-8.74715
▁both	-8.7488
▁happy	-8.74883
▁bit	-8.74958
▁important	-8.74975
▁watch	-8.75181
▁dollars	-8.75224
▁1	-8.75361
▁F	-8.7559
▁couple	-8.7562
▁reason	-8.76047
▁beautiful	-8.76184
M	-8.76389
▁ass	-8.76767
▁cut	-8.76865
▁soon	-8.76933
▁At	-8.77207
▁Ma	-8.77214
▁break	-8.77574
▁making	-8.77682
▁sit	-8.77956
am	-8.78049
▁Some	-8.7846
▁hours	-8.78587
ur	-8.787
▁anybody	-8.7873
▁taking	-8.79009
▁Would	-8.79123
▁telling	-8.79175
▁Sorry	-8.79608
mon	-8.79623
P	-8.79781
▁truth	-8.79879
▁hold	-8.80004
▁wants	-8.8003
▁police	-8.80138
▁E	-8.80336
▁second	-8.80763
na	-8.8104
▁ready	-8.81175
▁P	-8.81208
▁stand	-8.81262
ch	-8.81995
▁goes	-8.82742
▁forget	-8.82959
▁damn	-8.83041
ck	-8.83159
▁check	-8.8321
▁later	-8.8353
no	-8.83533
▁quite	-8.8354
▁easy	-8.83627
▁buy	-8.83694
▁Dad	-8.84184
▁pick	-8.84304
▁death	-8.8451
▁tried	-8.84639
▁water	-8.84738
▁M	-8.84879
▁eyes	-8.84959
▁fire	-8.85212
▁war	-8.85861
▁trust	-8.8667
▁book	-8.86906
▁ma	-8.86937
O	-8.87386
▁ship	-8.87433
▁thank	-8.87512
z	-8.8754
▁Christ	-8.87761
▁game	-8.87917
▁bed	-8.8801
▁against	-8.88053
▁though	-8.88101
▁inside	-8.88433
▁country	-8.89382
▁*	-8.89561
lo	-8.89635
able	-8.89831
▁sick	-8.90334
E	-8.90463
▁office	-8.90717
de	-8.91312
▁body	-8.9149
ta	-8.91821
▁sort	-8.92004
▁o	-8.92142
the	-8.92197
▁An	-8.92231
▁His	-8.92781
▁line	-8.93256
▁Two	-8.93262
▁along	-8.93299
▁answer	-8.93362
▁fact	-8.94212
ies	-8.94306
▁De	-8.94331
You	-8.9439
▁husband	-8.94394
▁number	-8.94599
ity	-8.94603
▁Re	-8.94846
▁months	-8.95147
▁million	-8.95282
ty	-8.95339
▁sense	-8.95503
B	-8.95616
ate	-8.95852
▁suppose	-8.96069
▁figure	-8.96076
▁K	-8.96194
ry	-8.96225
▁waiting	-8.96373
▁high	-8.96447
ive	-8.96495
▁died	-8.96694
▁party	-8.96829
R	-8.97015
ul	-8.97401
▁either	-8.97668
▁actually	-8.97675
.""	-8.97752
▁stupid	-8.97784
▁send	-8.97914
▁funny	-8.98135
▁comes	-8.98151
▁everybody	-8.98252
0	-8.9832
▁fight	-8.98364
▁Huh	-8.98836
▁c	-8.99074
▁times	-8.99677
▁serious	-9.00049
at	-9.00075
▁himself	-9.00152
▁looks	-9.00506
▁behind	-9.00724
▁blood	-9.00754
▁Give	-9.00848
▁speak	-9.00859
▁hour	-9.00902
▁moment	-9.00959
▁power	-9.0106
▁women	-9.01069
▁started	-9.01102
▁alive	-9.01237
▁light	-9.0224
me	-9.02592
▁Captain	-9.02637
▁Never	-9.02756
▁doctor	-9.03113
▁Sir	-9.03291
▁between	-9.03727
▁On	-9.04225
▁running	-9.04354
▁Frank	-9.04405
N	-9.04574
▁miss	-9.04623
▁Mom	-9.04957
▁hands	-9.05055
▁Fuck	-9.05063
▁drive	-9.05189
▁full	-9.05529
▁Ah	-9.05763
▁Man	-9.06097
▁living	-9.06336
▁Nobody	-9.0676
▁shoot	-9.06994
▁free	-9.07224
*	-9.0725
▁scared	-9.07505
id	-9.07695
▁seem	-9.07756
▁write	-9.07785
▁nobody	-9.08012
▁able	-9.08159
▁sound	-9.08527
ton	-9.08581
▁sent	-9.08621
▁George	-9.08622
▁dinner	-9.08879
less	-9.09097
L	-9.09519
et	-9.09783
▁shouldn	-9.09916
▁feeling	-9.09984
ine	-9.10066
▁ahead	-9.10234
x	-9.10255
▁Something	-9.10838
▁About	-9.10902
▁dog	-9.11135
▁lose	-9.11913
▁almost	-9.12023
▁front	-9.1218
▁everyone	-9.12318
▁safe	-9.12695
▁Very	-9.12963
▁means	-9.13586
▁daughter	-9.1405
▁fun	-9.14087
ling	-9.14137
▁Fine	-9.14205
▁York	-9.14312
▁asking	-9.14327
▁Only	-9.14388
▁brought	-9.14447
▁children	-9.14448
se	-9.14645
▁hot	-9.14696
▁child	-9.1474
▁sister	-9.15134
▁outside	-9.15244
▁happens	-9.15375
co	-9.15518
ma	-9.15543
▁also	-9.15544
do	-9.15925
▁con	-9.16052
ia	-9.16144
ian	-9.16549
▁Was	-9.16695
▁whatever	-9.16788
▁plan	-9.16949
▁After	-9.17352
▁shut	-9.17353
▁weren	-9.17531
▁dear	-9.1755
▁Does	-9.17684
▁honey	-9.17776
ol	-9.1802
▁W	-9.1823
▁news	-9.18293
▁lie	-9.18802
um	-9.18892
▁black	-9.18909
▁human	-9.19207
sh	-9.19796
▁movie	-9.20128
ha	-9.20228
▁weeks	-9.20308
▁Which	-9.21226
ig	-9.21315
ant	-9.21365
age	-9.22023
▁possible	-9.22094
▁taken	-9.22222
▁Stop	-9.2225
▁expect	-9.22266
ist	-9.22402
if	-9.22433
▁Ha	-9.22445
G	-9.22496
▁L	-9.2284
he	-9.2314
F	-9.23461
▁worth	-9.23516
▁Any	-9.23567
▁lady	-9.23599
▁sex	-9.23932
out	-9.23933
▁Say	-9.24104
▁fifty	-9.24107
▁glad	-9.24343
ness	-9.24417
as	-9.24444
!!	-9.24485
▁hair	-9.24559
▁past	-9.24761
one	-9.25103
▁piece	-9.2566
son	-9.25791
▁alright	-9.25843
pe	-9.25843
▁fast	-9.26057
▁goddamn	-9.26089
im	-9.26222
▁picture	-9.26251
▁somewhere	-9.26329
▁cold	-9.26618
▁gets	-9.26734
▁seems	-9.26771
▁learn	-9.26814
▁Even	-9.26842
▁dream	-9.26936
▁date	-9.2707
▁order	-9.2708
▁touch	-9.27087
▁promise	-9.27199
▁Her	-9.27255
ke	-9.27303
te	-9.2738
▁white	-9.27384
▁boys	-9.27538
▁Got	-9.27543
▁co	-9.2767
▁mouth	-9.27746
▁thanks	-9.27855
▁Could	-9.28072
▁till	-9.28719
ous	-9.28741
▁air	-9.28789
▁Great	-9.28789
▁tired	-9.28827
▁lives	-9.29048
we	-9.2923
▁cop	-9.29262
▁President	-9.29291
▁Harry	-9.29424
▁small	-9.29471
▁act	-9.2973
▁accident	-9.29745
▁beat	-9.30267
▁straight	-9.30336
go	-9.30744
▁rather	-9.31021
op	-9.31258
▁food	-9.31522
▁goin	-9.31539
▁These	-9.31647
▁looked	-9.31782
be	-9.31845
▁clear	-9.31887
▁become	-9.32088
▁catch	-9.32464
▁blow	-9.32724
▁YOU	-9.32937
▁girls	-9.32943
▁save	-9.33037
▁control	-9.33142
▁special	-9.33155
▁eight	-9.33184
▁Sam	-9.33297
▁leaving	-9.33298
per	-9.33637
▁kidding	-9.33639
▁explain	-9.33929
▁Shut	-9.341
▁pull	-9.3444
▁report	-9.34614
▁thirty	-9.34716
▁known	-9.35239
▁Our	-9.3532
▁Mary	-9.35375
▁Bill	-9.35452
The	-9.35514
▁words	-9.35519
▁parents	-9.35546
▁worked	-9.35794
▁Doctor	-9.3581
▁From	-9.35884
ad	-9.35887
▁Shit	-9.35987
▁wonderful	-9.3617
▁meeting	-9.36679
▁follow	-9.3674
▁hospital	-9.36813
▁cool	-9.36824
▁Didn	-9.36915
▁company	-9.36983
▁ride	-9.37005
▁interested	-9.37098
▁street	-9.37251
▁calling	-9.37309
▁bank	-9.37329
ge	-9.37471
▁mistake	-9.37589
po	-9.37652
▁bitch	-9.37752
▁Ra	-9.37847
▁First	-9.38027
▁Everything	-9.38188
▁fall	-9.38224
▁luck	-9.38613
▁plane	-9.38688
▁R	-9.38709
▁mad	-9.39029
▁cause	-9.39154
▁win	-9.39402
what	-9.39456
▁secret	-9.3956
▁ex	-9.39661
▁record	-9.3975
What	-9.39807
▁Ben	-9.39948
▁sometimes	-9.39949
▁playing	-9.40076
▁fool	-9.40084
▁poor	-9.40134
▁Tom	-9.40169
▁Hell	-9.40364
▁law	-9.40386
ful	-9.40512
ary	-9.40557
▁Ho	-9.40563
▁Isn	-9.40633
▁month	-9.40846
▁felt	-9.4117
▁lucky	-9.4127
▁land	-9.41325
▁questions	-9.41361
▁Paul	-9.41415
▁choice	-9.41526
▁wear	-9.41703
▁bother	-9.41893
bo	-9.42008
▁Am	-9.42625
▁Excuse	-9.42785
Y	-9.42826
▁b	-9.42833
▁d	-9.42844
ish	-9.42885
▁class	-9.43059
▁sell	-9.43062
▁By	-9.4333
▁wonder	-9.43647
▁People	-9.43714
▁Big	-9.43797
▁throw	-9.43941
tic	-9.44109
▁sign	-9.4422
H	-9.44294
▁bullshit	-9.44428
▁J	-9.4446
▁city	-9.44497
K	-9.44671
▁Three	-9.44796
▁shall	-9.448
▁bar	-9.44973
▁Joe	-9.44977
five	-9.45244
▁Those	-9.45353
▁apartment	-9.45359
▁handle	-9.45364
▁stick	-9.45409
da	-9.45601
▁dad	-9.45715
▁system	-9.45723
ee	-9.45885
▁Daddy	-9.45921
▁drop	-9.45932
nt	-9.46123
▁St	-9.4615
▁talked	-9.46257
▁simple	-9.46472
▁trip	-9.46497
▁mom	-9.46497
▁Make	-9.46576
▁dis	-9.46831
▁smart	-9.4693
▁boat	-9.46932
▁outta	-9.4715
▁hang	-9.47199
▁Alright	-9.47229
▁bet	-9.47636
▁turned	-9.47653
▁dark	-9.47788
▁top	-9.47863
▁worse	-9.48177
▁clean	-9.48195
▁Call	-9.48297
▁near	-9.48303
▁giving	-9.48373
▁hotel	-9.48398
▁ha	-9.48468
▁coffee	-9.48559
▁difference	-9.48559
▁fault	-9.48559
▁Every	-9.48827
▁cannot	-9.49148
▁perfect	-9.49271
▁seven	-9.49295
▁store	-9.49911
▁Think	-9.50105
but	-9.5027
▁eye	-9.50275
▁Keep	-9.50303
▁Nice	-9.50505
ther	-9.50751
cause	-9.50753
▁loved	-9.50755
▁Co	-9.50849
huh	-9.50969
▁feet	-9.51007
▁favor	-9.51078
▁David	-9.51083
5	-9.51225
▁Too	-9.51387
▁Charlie	-9.51675
▁short	-9.51874
▁seeing	-9.52073
ner	-9.5223
▁Con	-9.5224
▁swear	-9.5227
▁doin	-9.52413
▁worried	-9.5247
▁paper	-9.52657
▁Bob	-9.52773
▁murder	-9.5278
▁U	-9.5296
▁Al	-9.52991
▁less	-9.53024
▁respect	-9.53062
▁mo	-9.53323
▁Whatever	-9.53509
▁Sometimes	-9.53876
▁paid	-9.53885
ba	-9.53922
▁Forget	-9.54088
▁fucked	-9.54093
▁Ro	-9.54382
▁kept	-9.54688
▁Peter	-9.54726
▁ring	-9.54728
ff	-9.54817
▁Mister	-9.549
▁owe	-9.54929
▁clothes	-9.55096
▁caught	-9.55097
▁prove	-9.55123
ow	-9.55238
▁Remember	-9.55324
▁sweet	-9.55476
▁Walter	-9.55511
▁music	-9.55778
▁state	-9.56052
▁OK	-9.56196
ster	-9.56196
▁Y	-9.56305
ca	-9.56446
▁certain	-9.56498
▁road	-9.56539
▁Anything	-9.5675
ber	-9.56834
▁personal	-9.5697
▁needs	-9.57128
▁changed	-9.57128
▁information	-9.57169
W	-9.57203
oo	-9.57319
▁Michael	-9.57374
▁sake	-9.57384
▁works	-9.5746
▁marry	-9.57581
▁Mother	-9.57804
▁Rose	-9.57829
▁rich	-9.57864
▁May	-9.58036
ver	-9.58117
▁building	-9.58131
▁strange	-9.58146
▁bucks	-9.58367
▁situation	-9.58426
▁quit	-9.58639
!!!	-9.58767
▁middle	-9.58851
know	-9.58857
ho	-9.5893
▁Mo	-9.59041
ze	-9.59378
ard	-9.5938
▁finish	-9.59514
that	-9.59547
▁floor	-9.59704
▁broke	-9.59705
▁American	-9.59754
▁th	-9.59906
▁TV	-9.59931
▁cover	-9.59962
▁cops	-9.60121
▁Po	-9.60345
▁doubt	-9.60516
▁p	-9.60541
▁given	-9.60651
ph	-9.60787
ance	-9.60858
▁drunk	-9.60999
▁lunch	-9.61
▁brain	-9.61507
▁message	-9.61661
2	-9.6191
▁cost	-9.62162
▁tough	-9.62665
▁King	-9.62744
▁ought	-9.62745
▁longer	-9.62942
▁killer	-9.6303
ger	-9.63101
▁Damn	-9.63195
▁busy	-9.63276
▁terrible	-9.63416
▁future	-9.63417
▁lying	-9.63431
▁involved	-9.63482
▁pain	-9.63542
▁yesterday	-9.63639
▁Ba	-9.63659
▁N	-9.63791
▁Put	-9.63871
▁La	-9.63998
▁happening	-9.641
▁hasn	-9.64132
ated	-9.64482
▁Max	-9.64524
▁Everybody	-9.64538
▁sounds	-9.64738
▁imagine	-9.6476
▁realize	-9.64899
▁Jim	-9.64991
▁fear	-9.64993
▁count	-9.64996
▁anywhere	-9.65012
▁fix	-9.65026
▁figured	-9.6521
▁offer	-9.65339
▁dangerous	-9.65444
▁attack	-9.65704
▁upset	-9.65914
▁voice	-9.66123
▁weird	-9.66136
▁English	-9.66351
▁H	-9.66354
▁nine	-9.66363
hi	-9.66441
▁machine	-9.6658
▁present	-9.66582
▁bag	-9.66617
▁fair	-9.66682
▁Jimmy	-9.66817
▁born	-9.66896
▁dance	-9.66939
▁pro	-9.67072
pa	-9.67167
▁moving	-9.67275
▁step	-9.67449
▁ball	-9.67525
way	-9.67958
▁grand	-9.67981
▁killing	-9.68022
▁sitting	-9.6803
▁oh	-9.68185
▁Someone	-9.68225
▁ran	-9.68264
bb	-9.68301
▁others	-9.6844
▁Bo	-9.68445
▁jail	-9.68674
▁return	-9.68716
▁Ray	-9.68806
▁key	-9.68838
▁private	-9.68903
▁list	-9.68986
▁watching	-9.69
▁sun	-9.69117
▁spend	-9.69158
▁table	-9.69164
ah	-9.69165
▁2	-9.69185
▁early	-9.69418
▁star	-9.69476
▁Besides	-9.69611
▁grow	-9.69786
▁boss	-9.6999
▁General	-9.70086
clock	-9.70105
▁letter	-9.7011
▁James	-9.70115
▁truck	-9.70127
▁Nick	-9.70237
un	-9.70305
▁completely	-9.70606
▁Ca	-9.70787
▁court	-9.70799
▁Boy	-9.708
▁Perhaps	-9.70802
▁cash	-9.7081
▁careful	-9.7126
▁po	-9.71449
▁El	-9.71585
men	-9.7183
ally	-9.7192
▁Johnny	-9.72262
▁window	-9.72354
▁en	-9.72433
▁Four	-9.72508
▁red	-9.72591
▁dress	-9.72813
of	-9.72886
▁tape	-9.72916
▁Father	-9.72987
gg	-9.72997
▁evening	-9.73093
▁THE	-9.7341
time	-9.73458
▁Jake	-9.7348
for	-9.73545
▁War	-9.73581
my	-9.7365
▁per	-9.73693
nk	-9.7388
▁sh	-9.73962
▁kinda	-9.74074
▁nothin	-9.74173
▁protect	-9.74234
▁experience	-9.74235
▁needed	-9.7426
ite	-9.74327
▁y	-9.74339
▁film	-9.74461
No	-9.74583
▁pass	-9.74616
▁radio	-9.75073
▁Mi	-9.75106
▁Di	-9.75249
▁test	-9.75272
▁certainly	-9.75293
▁honest	-9.75394
▁Na	-9.75441
▁afternoon	-9.75459
▁station	-9.7549
▁pal	-9.75556
▁problems	-9.75777
▁team	-9.75849
▁lawyer	-9.75917
▁la	-9.76162
▁bought	-9.76217
▁stopped	-9.76242
▁kiss	-9.76369
▁picked	-9.76441
▁More	-9.76488
▁Anyway	-9.76733
▁liked	-9.76787
▁carry	-9.76841
▁strong	-9.76869
▁appreciate	-9.76976
ator	-9.76997
▁laugh	-9.7733
land	-9.77359
▁lay	-9.77468
▁smell	-9.77528
▁fly	-9.77592
ble	-9.78053
▁history	-9.7826
▁f	-9.78271
rs	-9.78283
▁miles	-9.78395
▁interesting	-9.7846
▁finished	-9.78489
▁service	-9.78517
▁White	-9.7852
bout	-9.7863
▁e	-9.78734
▁decided	-9.78756
▁Hold	-9.78785
▁reach	-9.78902
▁unless	-9.79076
▁asshole	-9.79087
▁wake	-9.7931
line	-9.79397
▁lived	-9.79545
▁ho	-9.79701
▁wrote	-9.79819
by	-9.79856
J	-9.79872
▁age	-9.79951
▁art	-9.80214
▁lo	-9.80344
▁fit	-9.80596
▁account	-9.80598
▁Eddie	-9.8061
▁share	-9.80613
▁Actually	-9.80625
▁ba	-9.80638
ler	-9.80727
▁Want	-9.80895
▁nervous	-9.81138
▁dumb	-9.81139
▁none	-9.81166
▁train	-9.81258
gen	-9.81287
▁blame	-9.81415
▁Li	-9.81432
ley	-9.81728
▁soul	-9.81838
ped	-9.81869
▁bunch	-9.81981
▁joke	-9.82068
▁gotten	-9.82187
▁crime	-9.82206
▁Fa	-9.82231
▁public	-9.82462
▁fish	-9.8254
▁books	-9.82544
ach	-9.82623
▁bus	-9.82661
▁sp	-9.82747
▁girlfriend	-9.82755
▁suit	-9.82799
▁ice	-9.82871
▁Ta	-9.82873
▁staying	-9.82918
▁bomb	-9.83016
▁pre	-9.83052
▁meant	-9.83066
▁Sal	-9.83088
▁mess	-9.83183
▁computer	-9.83286
▁Christmas	-9.83287
▁Lord	-9.83288
▁Try	-9.8342
▁across	-9.83588
▁named	-9.83719
▁excuse	-9.83831
▁risk	-9.83833
ick	-9.84
▁V	-9.84
1	-9.84012
ip	-9.84062
ten	-9.84101
lin	-9.84165
▁bastard	-9.84298
▁box	-9.84387
▁Car	-9.84452
ni	-9.84469
▁forgot	-9.84805
▁Da	-9.84891
der	-9.84906
▁except	-9.84988
cha	-9.85067
▁surprise	-9.85141
ide	-9.85141
▁fifteen	-9.85227
q	-9.8523
▁somethin	-9.8544
ism	-9.85442
He	-9.85637
▁Stay	-9.85805
ga	-9.85852
▁smoke	-9.86037
▁instead	-9.86127
▁horse	-9.86208
▁Last	-9.8621
▁hadn	-9.86217
▁charge	-9.86234
▁quick	-9.86251
▁twelve	-9.86316
▁nose	-9.86554
▁Vi	-9.86639
ex	-9.86667
▁join	-9.86795
▁takes	-9.86921
▁Le	-9.86949
▁pa	-9.86959
▁card	-9.87154
▁French	-9.87159
▁ground	-9.8723
▁Five	-9.87346
▁perhaps	-9.87442
all	-9.87507
▁quiet	-9.87657
led	-9.87708
▁board	-9.87724
▁type	-9.87784
▁interest	-9.87916
▁college	-9.88009
▁contact	-9.88009
▁finally	-9.88041
▁hide	-9.88056
▁pictures	-9.88104
▁space	-9.88356
▁rid	-9.88391
und	-9.88518
act	-9.88692
▁arm	-9.88787
▁missing	-9.88811
▁driving	-9.88872
▁Love	-9.88889
▁Ed	-9.89132
ey	-9.8925
▁forty	-9.89349
▁visit	-9.89405
▁Out	-9.89455
▁listening	-9.89669
▁Com	-9.89756
▁reading	-9.89783
▁wearing	-9.89804
▁standing	-9.89809
▁prison	-9.89882
ile	-9.89894
▁America	-9.89971
▁dying	-9.9003
▁track	-9.90086
▁honor	-9.90423
▁moved	-9.90568
▁eh	-9.9076
▁lead	-9.90801
▁field	-9.90801
▁file	-9.91226
▁single	-9.91232
▁missed	-9.91352
▁deep	-9.91583
▁San	-9.91678
▁partner	-9.91951
dy	-9.91973
▁Pa	-9.92135
▁idiot	-9.9237
▁mention	-9.92503
▁Aren	-9.92552
▁entire	-9.92598
▁hungry	-9.92673
▁Um	-9.92734
▁song	-9.92761
▁fat	-9.92825
pl	-9.93213
▁address	-9.93266
va	-9.93269
▁hardly	-9.93304
▁roll	-9.93391
cu	-9.93481
▁marriage	-9.93566
▁pleasure	-9.93566
▁Buddy	-9.93571
▁fellow	-9.93572
▁totally	-9.93634
ize	-9.93793
▁Mar	-9.93904
▁slow	-9.94107
▁admit	-9.94161
▁Black	-9.94169
▁attention	-9.94169
▁saved	-9.9419
▁taste	-9.9422
▁position	-9.94271
▁press	-9.94293
V	-9.94325
▁sad	-9.94369
▁Somebody	-9.94479
▁Once	-9.94529
ping	-9.94538
▁cat	-9.94568
▁accept	-9.94584
▁Leave	-9.94776
▁crap	-9.94788
ng	-9.9488
ier	-9.95502
con	-9.95616
▁imp	-9.95649
▁daddy	-9.95704
▁third	-9.95727
▁Red	-9.95831
▁notice	-9.95915
▁awful	-9.95989
,""	-9.9609
▁Chief	-9.9631
▁Still	-9.96327
▁teach	-9.96462
▁difficult	-9.9662
▁Everyone	-9.96635
▁gold	-9.96721
▁wind	-9.96773
▁stuck	-9.96934
▁self	-9.97085
ass	-9.97136
▁beginning	-9.97245
▁leg	-9.97315
▁calls	-9.97354
▁ch	-9.97363
▁wall	-9.97368
uh	-9.97369
▁Exactly	-9.97554
▁Sid	-9.97744
▁Should	-9.97777
▁Paris	-9.97787
▁agree	-9.97825
RE	-9.9788
▁force	-9.98039
▁Louis	-9.98152
ating	-9.98241
▁mu	-9.98438
▁army	-9.98608
▁lock	-9.9877
▁blue	-9.98814
▁neck	-9.9882
▁Mike	-9.99049
▁talkin	-9.9906
▁travel	-9.99226
▁trick	-9.99307
ING	-9.99454
▁club	-9.99499
▁knock	-9.99578
▁condition	-9.99772
dge	-9.99863
▁movies	-9.99927
ring	-9.99937
▁Che	-10.0005
..."	-10.0007
▁Major	-10.0009
▁forgive	-10.0016
tion	-10.0019
ship	-10.0022
▁enjoy	-10.0032
ot	-10.0038
▁Before	-10.0042
▁papers	-10.0044
▁Ya	-10.0061
▁birthday	-10.0074
▁Wow	-10.0075
▁jump	-10.0097
▁evil	-10.0106
▁hurry	-10.0106
▁agent	-10.011
▁Un	-10.011
▁st	-10.0111
▁god	-10.0113
▁fighting	-10.0135
▁Th	-10.0137
▁evidence	-10.0138
▁Six	-10.0138
▁Sounds	-10.0139
▁usually	-10.0143
▁Must	-10.0145
io	-10.0145
▁City	-10.0147
▁relationship	-10.0171
▁ra	-10.0177
so	-10.0185
▁cross	-10.0196
▁Probably	-10.0203
▁security	-10.0203
▁darling	-10.0205
▁di	-10.0209
ny	-10.0222
end	-10.0227
▁kick	-10.0228
▁drugs	-10.023
lar	-10.0233
can	-10.0234
▁gift	-10.0236
▁silly	-10.0236
▁Alex	-10.0237
rew	-10.0239
▁wedding	-10.0243
▁sea	-10.0246
ER	-10.0274
▁r	-10.0274
▁mission	-10.0318
▁walking	-10.032
ran	-10.0326
▁promised	-10.0342
ue	-10.0342
▁Watch	-10.0369
▁Ar	-10.037
▁Back	-10.0372
▁dreams	-10.0375
▁wondering	-10.0376
▁Mac	-10.0392
▁ourselves	-10.0402
▁nuts	-10.0405
▁Aw	-10.0426
▁Charles	-10.0435
▁Twenty	-10.0435
▁writing	-10.0435
▁memory	-10.0436
▁whe	-10.0437
fi	-10.0437
ture	-10.0438
▁boyfriend	-10.047
not	-10.0477
▁Ten	-10.0478
nch	-10.0483
▁Billy	-10.0489
▁asleep	-10.0503
▁spent	-10.0503
▁block	-10.0503
▁absolutely	-10.0504
▁broken	-10.0515
▁acting	-10.0516
▁loose	-10.0537
ious	-10.0544
It	-10.0576
kin	-10.0582
▁Doesn	-10.059
▁Eve	-10.0598
ial	-10.0611
▁earth	-10.0641
▁code	-10.0643
▁steal	-10.065
▁folks	-10.0656
▁rent	-10.066
head	-10.0661
▁Since	-10.0673
▁Ever	-10.0675
▁orders	-10.0679
off	-10.0692
▁NO	-10.0694
Cause	-10.0694
And	-10.0697
▁seconds	-10.0703
▁ridiculous	-10.0707
▁spot	-10.0707
ium	-10.0707
▁planet	-10.0711
▁beer	-10.0714
▁color	-10.0728
ka	-10.0732
well	-10.0737
▁dig	-10.0741
▁government	-10.0741
▁Over	-10.0745
▁Earth	-10.0776
▁Sit	-10.0793
▁Bu	-10.0795
▁client	-10.0811
▁Jerry	-10.0811
▁foot	-10.0825
▁officer	-10.0827
▁Has	-10.0841
▁Dick	-10.0847
aw	-10.0851
▁Lo	-10.0863
▁percent	-10.088
▁contract	-10.0881
▁plenty	-10.0881
▁relax	-10.0881
▁twice	-10.0881
▁surprised	-10.0889
cy	-10.0896
side	-10.0926
tch	-10.0927
▁fired	-10.0928
▁Carl	-10.0935
▁vi	-10.0936
▁Ted	-10.095
▁normal	-10.0951
▁extra	-10.0951
▁hi	-10.0954
▁belong	-10.0963
que	-10.097
▁consider	-10.0975
▁seat	-10.0976
▁starting	-10.0983
▁nurse	-10.0986
▁scene	-10.0986
▁correct	-10.0986
ya	-10.0986
▁Help	-10.0987
▁Honey	-10.0987
▁plans	-10.099
▁forever	-10.0996
▁program	-10.1022
▁Ga	-10.103
uck	-10.1035
▁summer	-10.1057
▁Mu	-10.1084
▁rat	-10.1094
▁peace	-10.1099
▁Hu	-10.1107
ak	-10.1112
▁king	-10.1115
▁Pi	-10.1117
▁group	-10.1129
▁freak	-10.1129
▁Better	-10.113
▁gas	-10.1136
▁rock	-10.1147
▁decision	-10.1165
▁impossible	-10.1165
▁price	-10.1165
▁burn	-10.1169
nd	-10.1178
▁low	-10.1185
>...	-10.1199
▁level	-10.1201
▁angry	-10.1201
▁camp	-10.1202
▁crack	-10.1206
▁fell	-10.1236
ward	-10.1253
ized	-10.1254
▁using	-10.1268
▁bathroom	-10.1274
▁dollar	-10.1289
▁destroy	-10.1291
▁closed	-10.1302
▁witness	-10.1306
▁buddy	-10.131
▁weekend	-10.1312
▁cell	-10.1346
▁FBI	-10.1347
▁Uncle	-10.1347
▁decide	-10.135
▁Dude	-10.136
▁build	-10.1364
▁glass	-10.138
amp	-10.1385
▁pulled	-10.1389
▁walked	-10.139
▁herself	-10.1391
▁sing	-10.1392
nce	-10.1402
▁tight	-10.1421
ible	-10.1429
▁suspect	-10.1438
▁round	-10.1441
▁rules	-10.1443
▁advice	-10.1457
▁favorite	-10.1458
▁Jeff	-10.1459
▁tip	-10.1462
▁Ask	-10.1468
▁note	-10.1472
That	-10.1485
We	-10.1494
▁Believe	-10.1494
▁stories	-10.1494
▁wild	-10.1494
▁gl	-10.1507
ever	-10.1516
our	-10.152
▁dick	-10.1535
▁holding	-10.1543
les	-10.1545
▁seemed	-10.1556
▁action	-10.1566
▁guns	-10.1567
▁Talk	-10.1569
▁Star	-10.1595
▁Pe	-10.1606
▁Lee	-10.1606
▁criminal	-10.1607
▁waste	-10.1611
she	-10.1614
▁Were	-10.1614
▁Pop	-10.1617
ning	-10.1633
▁major	-10.1645
▁Little	-10.1645
▁Betty	-10.1645
▁ear	-10.1648
▁blind	-10.1682
▁records	-10.1683
▁Tommy	-10.1684
▁Cha	-10.1704
▁patient	-10.1704
▁hole	-10.1709
▁built	-10.172
▁innocent	-10.172
▁calm	-10.1721
▁Most	-10.1721
▁Bobby	-10.1722
ack	-10.1742
ac	-10.1742
▁complete	-10.1755
▁remind	-10.1759
▁Ain	-10.1763
▁learned	-10.1768
▁rain	-10.1772
ake	-10.1776
house	-10.1789
▁begin	-10.1792
▁Lieutenant	-10.1797
▁cheap	-10.1797
▁opinion	-10.1797
▁crew	-10.1799
▁Pro	-10.1809
▁shop	-10.1837
▁Time	-10.184
▁corner	-10.1842
▁often	-10.1843
▁com	-10.1873
▁California	-10.1874
▁credit	-10.1874
▁split	-10.1874
▁wire	-10.1875
▁stole	-10.1905
ence	-10.1908
▁island	-10.1918
ay	-10.192
like	-10.192
ical	-10.1922
▁scare	-10.1924
▁played	-10.1924
▁pe	-10.1925
▁cab	-10.1933
▁da	-10.1942
▁cry	-10.195
▁apologize	-10.1952
▁operation	-10.1952
▁warm	-10.1964
rry	-10.1983
▁character	-10.1991
▁Old	-10.1992
▁le	-10.2007
ker	-10.2015
▁Up	-10.2022
che	-10.2027
▁hat	-10.2032
▁cute	-10.2034
▁feelings	-10.2061
▁Absolutely	-10.207
▁Mama	-10.2074
▁sleeping	-10.2102
▁Except	-10.2109
▁band	-10.2114
light	-10.2117
ors	-10.2122
old	-10.2122
▁Kill	-10.2128
gan	-10.2137
▁push	-10.2149
▁pocket	-10.2149
▁proud	-10.2149
▁nature	-10.2149
▁during	-10.2149
▁cook	-10.2167
king	-10.2205
rr	-10.2224
▁neither	-10.2228
▁Always	-10.2228
▁Goodbye	-10.223
▁area	-10.2233
▁deserve	-10.2234
ron	-10.2235
▁issue	-10.2237
▁due	-10.2249
▁pop	-10.225
▁church	-10.2269
▁worst	-10.2269
▁desert	-10.2269
▁dirty	-10.2274
▁view	-10.2277
▁Du	-10.2278
▁Su	-10.2288
▁arrest	-10.229
▁cr	-10.2291
▁camera	-10.2291
Well	-10.2299
▁dunno	-10.2309
▁welcome	-10.2309
▁support	-10.2309
▁crash	-10.2309
▁Richard	-10.2309
▁monster	-10.2309
don	-10.2318
▁Doc	-10.2325
fe	-10.2339
▁Washington	-10.2349
▁Sheriff	-10.2349
00	-10.2361
how	-10.2376
▁Bullshit	-10.239
▁bear	-10.2403
▁apart	-10.2412
▁locked	-10.2415
/	-10.2421
ade	-10.2428
▁conversation	-10.2431
▁subject	-10.2431
▁Russian	-10.2435
▁Guess	-10.2435
▁moon	-10.2436
▁sta	-10.2455
▁Del	-10.2457
▁fr	-10.2461
▁West	-10.2464
▁Looks	-10.2468
▁Street	-10.2472
▁Colonel	-10.2472
▁gettin	-10.248
Oh	-10.2484
▁State	-10.2485
▁beach	-10.2504
▁w	-10.2506
▁Tomorrow	-10.2513
▁sub	-10.2519
▁drug	-10.2521
▁double	-10.2554
▁lovely	-10.2561
▁ticket	-10.2563
ump	-10.2565
▁breath	-10.2567
▁concerned	-10.2573
▁concern	-10.2577
▁dump	-10.2578
▁career	-10.258
▁ta	-10.2584
▁cup	-10.2602
▁Turn	-10.2604
▁treat	-10.2626
AN	-10.2629
▁Next	-10.2637
▁insane	-10.2639
▁fill	-10.2643
▁study	-10.2658
they	-10.2674
wa	-10.2686
▁tea	-10.2691
▁command	-10.2698
▁sold	-10.2699
ap	-10.2706
▁onto	-10.2717
▁Yah	-10.2721
▁teeth	-10.2721
▁bat	-10.2722
▁Indian	-10.2731
▁prefer	-10.2743
▁drinking	-10.2749
two	-10.2755
ld	-10.2756
▁Bruce	-10.2764
▁Senator	-10.2764
▁taught	-10.2764
▁Ex	-10.2779
ain	-10.2785
▁post	-10.2796
▁None	-10.2802
▁Henry	-10.2806
▁Robert	-10.2806
▁chicken	-10.2809
▁rule	-10.2823
▁tie	-10.2826
▁showed	-10.2834
▁training	-10.2841
▁Smith	-10.2848
▁heaven	-10.2848
▁Jeffrey	-10.2849
▁bottle	-10.2849
▁common	-10.285
fa	-10.2861
▁animal	-10.2866
ory	-10.2869
▁hero	-10.2874
ina	-10.2878
▁breakfast	-10.2891
▁heavy	-10.2891
▁Eight	-10.2893
▁Check	-10.2893
▁trial	-10.2894
▁South	-10.2896
▁Se	-10.2898
ties	-10.2918
▁games	-10.2929
▁Gee	-10.2932
▁amazing	-10.2934
▁stock	-10.2934
▁Another	-10.2935
▁ME	-10.295
▁wine	-10.2965
ki	-10.2965
▁upstairs	-10.2977
▁Daniel	-10.2977
▁purpose	-10.2977
▁House	-10.2978
▁raise	-10.2987
▁size	-10.2993
▁tree	-10.2999
▁lately	-10.3014
▁piss	-10.3019
▁empty	-10.302
▁television	-10.3021
right	-10.3023
▁Long	-10.3023
▁TO	-10.3026
▁paying	-10.3029
▁rough	-10.3035
▁Andy	-10.3041
av	-10.3046
▁page	-10.3047
▁murdered	-10.3062
four	-10.3063
▁discuss	-10.3063
▁Pretty	-10.3064
▁detective	-10.3064
▁dropped	-10.3065
▁beg	-10.3074
▁Bar	-10.3085
▁Martin	-10.3093
let	-10.3096
▁large	-10.3101
▁pig	-10.3107
▁enemy	-10.3108
▁skin	-10.3115
▁bra	-10.3119
ice	-10.3138
▁willing	-10.3146
▁speech	-10.3152
▁afford	-10.3152
▁h	-10.3156
▁bill	-10.3162
val	-10.3165
▁forward	-10.3165
▁Show	-10.32
▁ruin	-10.3221
▁danger	-10.3239
▁department	-10.324
ight	-10.3241
▁hanging	-10.3248
ise	-10.3253
boy	-10.3261
▁Sha	-10.3262
▁Nope	-10.3271
▁responsible	-10.3284
▁losing	-10.3285
▁proof	-10.3285
▁noticed	-10.3289
▁bo	-10.3299
▁writer	-10.3317
ob	-10.3323
▁themselves	-10.3329
▁Guy	-10.3329
▁heat	-10.3339
▁bust	-10.3342
▁keeping	-10.3348
▁mark	-10.3352
▁exist	-10.3368
rate	-10.3373
▁desk	-10.3374
▁chair	-10.3375
▁sight	-10.3375
ail	-10.3387
▁bite	-10.3396
ric	-10.3397
▁copy	-10.3408
▁Nah	-10.3409
!"	-10.341
▁curious	-10.3419
▁Tra	-10.3433
▁allow	-10.3459
▁Blue	-10.3464
▁Marty	-10.3466
▁shoes	-10.3468
▁itself	-10.347
ations	-10.3485
▁se	-10.3491
▁Ann	-10.3497
▁finger	-10.3501
▁natural	-10.3502
ple	-10.3506
▁famous	-10.3509
▁simply	-10.3509
?""	-10.3512
▁hook	-10.3514
▁hiding	-10.3518
▁within	-10.3522
over	-10.3523
▁Cr	-10.3528
▁Same	-10.353
▁eating	-10.3535
▁stone	-10.3535
▁fan	-10.3536
ions	-10.3537
▁Agent	-10.3556
▁pool	-10.3557
ery	-10.3558
od	-10.3566
▁Kid	-10.3575
▁hired	-10.3579
▁seriously	-10.3582
▁j	-10.3588
▁Saturday	-10.3601
▁vacation	-10.3601
▁soft	-10.3604
▁mama	-10.3606
▁following	-10.3615
▁greatest	-10.3624
▁em	-10.3634
▁Fe	-10.3634
▁helped	-10.3642
▁judge	-10.3646
▁possibly	-10.3647
▁Find	-10.3648
▁suddenly	-10.3653
▁inter	-10.3672
▁lied	-10.3682
▁fella	-10.3683
ill	-10.3688
yes	-10.3692
▁Life	-10.3694
▁Miles	-10.3694
▁guard	-10.3698
ction	-10.3716
▁spoke	-10.3732
▁Things	-10.3741
▁player	-10.3748
▁Yo	-10.3765
ding	-10.3775
▁nerve	-10.3787
▁flight	-10.3787
▁Grace	-10.3788
▁Holy	-10.3805
▁search	-10.3812
▁Cor	-10.3813
ified	-10.3818
▁beyond	-10.3834
▁interview	-10.3834
▁feed	-10.3843
use	-10.3847
▁Ok	-10.3874
▁Wouldn	-10.3875
▁Dave	-10.3878
▁Admiral	-10.3881
▁Thomas	-10.3881
▁Army	-10.3882
▁duty	-10.3882
▁laid	-10.3883
▁wash	-10.3887
▁Te	-10.3903
ney	-10.3913
back	-10.3913
▁whose	-10.3914
▁sin	-10.3916
▁shooting	-10.3917
▁port	-10.3922
▁lonely	-10.3928
▁quarter	-10.3928
▁magic	-10.3928
this	-10.3933
▁park	-10.395
▁local	-10.3976
▁va	-10.3982
▁Aye	-10.3982
▁bridge	-10.3984
▁passed	-10.4013
▁teacher	-10.4018
▁spirit	-10.4023
▁Harold	-10.4024
▁language	-10.4024
▁jerk	-10.4024
▁gives	-10.4025
▁comin	-10.4033
▁professional	-10.4033
"	-10.4035
▁recognize	-10.4038
▁London	-10.4072
▁strike	-10.4072
▁High	-10.4072
▁screw	-10.4079
▁grab	-10.4091
▁fa	-10.4114
board	-10.4115
▁hall	-10.4116
▁familiar	-10.412
▁license	-10.412
▁magazine	-10.412
▁cousin	-10.412
▁Norman	-10.4125
▁Had	-10.4135
▁Spa	-10.4142
cing	-10.4144
OR	-10.4147
▁hey	-10.4148
▁Gra	-10.4156
▁held	-10.4161
are	-10.4163
▁Hard	-10.4164
▁hearing	-10.4167
▁Lloyd	-10.4169
▁switch	-10.4169
▁master	-10.418
▁escape	-10.4183
▁pin	-10.4185
▁bird	-10.4196
▁Bad	-10.4202
law	-10.4207
unt	-10.4208
▁letters	-10.4212
▁Je	-10.4219
▁Friday	-10.422
▁pen	-10.4234
▁farm	-10.4237
▁pounds	-10.4242
▁legs	-10.4264
▁green	-10.4266
▁talent	-10.4267
▁print	-10.4267
nn	-10.4269
▁sword	-10.4273
▁pray	-10.4274
▁names	-10.429
▁Mark	-10.4303
▁Ti	-10.4304
▁England	-10.4316
▁Mexico	-10.4316
▁river	-10.4316
▁dry	-10.432
ball	-10.4322
▁bigger	-10.4324
▁bug	-10.4342
▁rep	-10.4361
▁Dorothy	-10.4365
▁kitchen	-10.4365
▁trap	-10.4366
room	-10.4371
▁settle	-10.438
ai	-10.4391
▁pack	-10.4393
ire	-10.4411
work	-10.4413
▁jealous	-10.4415
▁Vegas	-10.4415
▁claim	-10.4415
▁Know	-10.4416
▁Leon	-10.4426
▁Brad	-10.4434
▁scar	-10.4446
▁Sunday	-10.4465
▁main	-10.4466
▁hoping	-10.4473
▁serve	-10.4481
▁um	-10.4486
hu	-10.4489
▁checked	-10.4511
▁suicide	-10.4515
▁bodies	-10.4515
▁further	-10.4515
▁Jason	-10.4516
▁pants	-10.4518
ette	-10.4534
j	-10.4547
▁collect	-10.4563
▁Trust	-10.4566
▁medical	-10.4567
▁guilty	-10.4569
▁brothers	-10.4577
▁signal	-10.4578
▁perfectly	-10.4584
▁Cause	-10.4586
▁Per	-10.4587
▁ga	-10.4587
ned	-10.4597
▁Majesty	-10.4616
▁loud	-10.4617
▁connection	-10.4618
▁lookin	-10.4632
▁legal	-10.4633
▁older	-10.4639
▁pretend	-10.4645
▁g	-10.4649
▁ill	-10.4652
bu	-10.4654
▁keys	-10.4658
▁keeps	-10.4667
▁practice	-10.4667
▁comfortable	-10.4668
▁Bud	-10.4679
ung	-10.4694
▁cap	-10.4711
rk	-10.4716
▁climb	-10.4719
▁horrible	-10.4719
▁Los	-10.472
▁Baby	-10.472
▁mis	-10.473
▁somehow	-10.4734
▁Ni	-10.474
▁map	-10.4749
▁Ne	-10.4761
▁Buzz	-10.477
▁choose	-10.477
▁video	-10.477
▁became	-10.477
▁turns	-10.4776
▁Haven	-10.4789
lon	-10.4797
▁direct	-10.4797
eight	-10.4814
▁project	-10.4822
▁property	-10.4823
▁definitely	-10.4823
▁Yep	-10.4824
cc	-10.4828
ute	-10.4831
ov	-10.4844
lock	-10.4853
▁li	-10.4857
▁regular	-10.4874
▁uncle	-10.4874
▁pardon	-10.4874
▁trade	-10.4875
▁pressure	-10.4875
▁knife	-10.4877
▁Dead	-10.4878
▁loves	-10.4907
▁continue	-10.4909
▁driver	-10.4909
▁garden	-10.4926
▁necessary	-10.4926
▁sweetheart	-10.4926
▁drove	-10.4927
▁Death	-10.4931
▁plant	-10.4943
za	-10.4947
cho	-10.4947
▁weight	-10.4965
>!	-10.4976
▁insurance	-10.4979
▁written	-10.4979
▁Green	-10.4979
▁weak	-10.4982
gie	-10.4983
▁fresh	-10.499
▁load	-10.4998
▁coat	-10.4999
▁Cut	-10.4999
▁crying	-10.501
▁hello	-10.5013
▁Scott	-10.5021
▁match	-10.503
▁excited	-10.5032
▁blew	-10.5032
▁mood	-10.5033
▁dude	-10.5033
▁usual	-10.5036
▁IT	-10.5048
▁wise	-10.5051
▁pissed	-10.5055
▁Bye	-10.5057
▁Ri	-10.5063
▁toward	-10.5066
▁particular	-10.5078
▁access	-10.5085
▁Seven	-10.5086
IN	-10.5091
▁goodbye	-10.5093
ose	-10.5094
▁sixty	-10.5094
▁divorce	-10.5105
seven	-10.5119
▁carrying	-10.5132
So	-10.5134
▁strength	-10.5139
▁smile	-10.5139
▁shower	-10.5139
▁gentleman	-10.5139
▁aware	-10.514
▁dec	-10.5141
▁seventy	-10.5143
py	-10.5144
ueen	-10.5145
▁k	-10.515
cept	-10.5157
▁lu	-10.5163
▁Joey	-10.5168
ky	-10.5168
LL	-10.5178
▁effect	-10.5191
▁Until	-10.5193
▁Gordon	-10.5193
▁Roger	-10.5194
▁watched	-10.5197
rd	-10.5202
▁Fi	-10.5213
ries	-10.5227
▁mi	-10.523
▁Day	-10.523
▁closer	-10.523
▁Thirty	-10.5246
▁speed	-10.5247
▁bright	-10.5247
▁sport	-10.5248
▁Unless	-10.5248
▁thou	-10.5249
low	-10.5249
▁sexual	-10.526
her	-10.5265
▁actor	-10.527
rus	-10.5281
▁sudden	-10.5294
▁throat	-10.5301
▁weather	-10.5301
▁Annie	-10.5303
pen	-10.5308
some	-10.5309
ib	-10.5316
ON	-10.5318
▁10	-10.5326
▁sweat	-10.5334
▁Son	-10.5334
▁disappear	-10.5336
▁Mon	-10.5344
▁Mc	-10.5346
▁Rob	-10.5349
▁tr	-10.5351
▁affair	-10.5355
▁disease	-10.5355
▁immediately	-10.5357
▁planning	-10.5357
▁Tonight	-10.5358
▁followed	-10.5362
▁balls	-10.5366
▁Leo	-10.5376
dle	-10.5391
▁lots	-10.5394
▁awhile	-10.5397
▁bath	-10.5399
▁gra	-10.5401
▁si	-10.5403
▁brains	-10.5405
▁Em	-10.5406
▁Home	-10.5408
hy	-10.5408
▁stayed	-10.541
▁emergency	-10.541
▁opportunity	-10.541
▁ugly	-10.541
▁gentlemen	-10.5411
▁weapons	-10.5412
hole	-10.5417
▁unit	-10.5419
gi	-10.542
▁van	-10.5426
▁sometime	-10.5432
▁beauty	-10.5466
▁biggest	-10.5466
▁Hollywood	-10.5466
▁harm	-10.5466
▁airport	-10.5467
▁pair	-10.5471
▁crowd	-10.5473
▁manager	-10.5473
▁upon	-10.5476
ient	-10.5487
▁noise	-10.5487
▁bringing	-10.5507
▁arms	-10.5513
▁chick	-10.5518
▁Ju	-10.5519
▁Susan	-10.5521
▁market	-10.5523
EN	-10.5526
▁cards	-10.5535
ero	-10.5543
▁nowhere	-10.5544
▁sa	-10.5554
▁weapon	-10.5575
oh	-10.5576
▁especially	-10.5577
▁Wh	-10.5578
▁Luke	-10.5578
▁liar	-10.5579
▁Bring	-10.5581
Yeah	-10.5586
▁damage	-10.5599
▁animals	-10.5611
▁mentioned	-10.5613
▁North	-10.5622
▁base	-10.5626
▁oil	-10.5626
▁damned	-10.5629
til	-10.563
▁easier	-10.5633
port	-10.5635
▁sooner	-10.5642
ative	-10.5644
▁er	-10.5673
▁Jane	-10.5678
▁5	-10.568
▁bottom	-10.569
▁energy	-10.569
▁extreme	-10.569
▁motherfucker	-10.569
▁fortune	-10.569
▁social	-10.569
▁shark	-10.569
▁score	-10.569
▁everywhere	-10.5692
▁tear	-10.5696
▁numbers	-10.5698
▁Mm	-10.5706
▁assume	-10.5712
▁theory	-10.5713
▁busted	-10.5715
▁deliver	-10.5718
rch	-10.5722
▁artist	-10.5723
▁leads	-10.5725
▁dressed	-10.5734
▁draw	-10.5739
▁Adam	-10.5747
▁jacket	-10.5747
▁East	-10.5748
▁believed	-10.5751
lt	-10.5751
late	-10.5754
eat	-10.5771
istic	-10.5773
uff	-10.5773
▁ca	-10.5775
pro	-10.5778
▁knowing	-10.5788
uit	-10.5791
dic	-10.5801
▁shape	-10.5804
▁obviously	-10.5811
▁Johnson	-10.5811
▁na	-10.5812
night	-10.5813
▁Naw	-10.5817
▁opened	-10.5818
▁runs	-10.5848
▁experiment	-10.5861
▁battle	-10.5862
▁above	-10.5862
▁wheel	-10.5865
▁guest	-10.5869
just	-10.5871
quot	-10.5879
▁ears	-10.5888
▁expecting	-10.5891
▁wound	-10.59
ging	-10.5908
ual	-10.5912
▁Thursday	-10.5919
▁storm	-10.5919
fuck	-10.5921
▁pee	-10.5922
▁Chi	-10.5931
▁Tr	-10.5935
▁expected	-10.5936
▁personally	-10.5942
▁shock	-10.5958
▁ok	-10.5967
▁Pri	-10.5969
▁obvious	-10.597
▁Gimme	-10.5977
▁World	-10.5977
▁truly	-10.5977
▁eleven	-10.5977
▁DO	-10.5977
▁fi	-10.5987
▁bullet	-10.5988
▁insist	-10.5991
ray	-10.6001
▁allowed	-10.6002
▁flat	-10.6005
▁general	-10.6029
▁Rick	-10.6029
▁Ryan	-10.6036
▁milk	-10.6036
▁starts	-10.6045
▁suggest	-10.6047
▁answers	-10.6062
▁total	-10.6073
▁States	-10.6086
▁Relax	-10.6094
▁Italian	-10.6095
▁neighborhood	-10.6095
▁repeat	-10.6095
▁Goddamn	-10.6095
oe	-10.61
▁lines	-10.6127
lie	-10.6136
▁Earl	-10.6144
▁Pete	-10.6147
▁Benjamin	-10.6154
▁buried	-10.6154
▁British	-10.6154
▁sneak	-10.6154
▁rush	-10.6154
▁dozen	-10.6154
▁pilot	-10.616
▁gr	-10.616
▁Nu	-10.6176
▁survive	-10.6179
▁Pat	-10.6185
▁original	-10.6189
▁ver	-10.6209
▁responsibility	-10.6213
▁square	-10.6213
▁garage	-10.6213
▁Fred	-10.6226
This	-10.6227
▁devil	-10.6258
▁Mitchell	-10.6273
▁virus	-10.6273
▁Larry	-10.6274
▁Poor	-10.6284
com	-10.6287
ES	-10.6289
▁vote	-10.6296
shit	-10.6303
▁grave	-10.6315
press	-10.6318
▁stars	-10.6319
▁Ru	-10.6324
▁United	-10.6333
▁limit	-10.6333
▁avoid	-10.6333
ane	-10.6334
▁data	-10.6336
▁Cole	-10.6345
▁feels	-10.6349
▁Bra	-10.6352
▁i	-10.6352
▁Pre	-10.6354
▁ju	-10.6356
▁lights	-10.6357
down	-10.6366
▁Jo	-10.637
▁Roy	-10.6375
ddy	-10.6392
▁Elaine	-10.6394
▁Easy	-10.6394
▁funeral	-10.6394
▁helping	-10.6395
▁grade	-10.6396
six	-10.6402
▁Lou	-10.6417
▁murderer	-10.6419
▁Baron	-10.6422
▁Shall	-10.6442
▁heads	-10.6446
▁eighteen	-10.6455
▁crawl	-10.6455
▁Ge	-10.6458
▁manage	-10.6462
▁Real	-10.6471
▁places	-10.6477
▁sat	-10.648
Do	-10.6483
▁meat	-10.6484
▁n	-10.6492
▁turning	-10.6493
▁north	-10.6501
▁plate	-10.6508
▁du	-10.6515
▁Professor	-10.6516
▁process	-10.6516
▁value	-10.6516
▁desire	-10.6516
▁Certainly	-10.6517
▁Danny	-10.6517
▁forgotten	-10.6518
▁script	-10.6539
town	-10.6553
▁dogs	-10.6557
▁Van	-10.6561
▁hunt	-10.6574
pp	-10.6577
▁pregnant	-10.6578
▁stomach	-10.6578
▁Commander	-10.6583
▁appear	-10.6605
under	-10.661
▁Hmm	-10.6611
▁spare	-10.6624
▁flying	-10.6632
▁Spock	-10.664
▁bedroom	-10.6642
▁among	-10.6645
▁quickly	-10.6656
▁add	-10.6664
▁powerful	-10.6669
▁fla	-10.6673
rrow	-10.6676
▁joint	-10.6678
How	-10.668
▁tryin	-10.6696
▁bi	-10.6698
▁pattern	-10.6703
▁release	-10.6703
▁Monday	-10.6703
▁recall	-10.6703
▁boring	-10.6703
▁Nine	-10.6708
▁frightened	-10.6709
▁prepared	-10.6723
▁Far	-10.6735
▁destroyed	-10.6735
▁burned	-10.6736
zi	-10.6737
▁tapes	-10.6741
ities	-10.676
▁loser	-10.676
▁expert	-10.6765
▁attorney	-10.6765
▁Sergeant	-10.6765
▁science	-10.6765
▁trunk	-10.6765
▁ideas	-10.6775
▁Win	-10.6779
▁meaning	-10.6781
▁Ch	-10.6786
▁breaking	-10.6788
▁files	-10.6797
▁dealing	-10.6797
▁pi	-10.6798
▁Victor	-10.6819
▁lift	-10.6822
▁final	-10.6824
▁mostly	-10.6829
▁Chicago	-10.6829
▁Taylor	-10.6829
▁approach	-10.6829
▁miracle	-10.6829
▁positive	-10.6829
▁attitude	-10.6829
▁stink	-10.683
▁Down	-10.683
▁Master	-10.6834
▁Alan	-10.6835
pin	-10.6849
▁rec	-10.6855
▁pieces	-10.6858
▁Stu	-10.6874
cal	-10.6877
▁research	-10.6892
▁restaurant	-10.6892
▁slept	-10.6892
▁roof	-10.6892
▁Mickey	-10.6893
▁punch	-10.6893
▁shake	-10.6894
gar	-10.6901
▁Sonny	-10.6904
oon	-10.6929
▁bum	-10.6938
▁mar	-10.6938
orn	-10.6955
▁Junior	-10.6957
▁telephone	-10.6957
▁trace	-10.6957
▁awake	-10.6957
▁Goodnight	-10.6961
▁Cool	-10.6962
▁shirt	-10.6966
▁falling	-10.6975
▁Er	-10.6982
▁fake	-10.6987
fl	-10.6992
▁Dan	-10.6992
nge	-10.6997
▁Anna	-10.7004
ford	-10.7004
▁20	-10.7016
tan	-10.7019
▁romantic	-10.7021
▁investigation	-10.7021
▁creep	-10.7021
▁Jean	-10.7022
▁ladies	-10.7022
▁Honor	-10.7023
▁Col	-10.7023
▁direction	-10.7028
▁chain	-10.7029
▁picking	-10.7034
▁reasons	-10.7037
▁disappeared	-10.7044
▁cars	-10.7053
Yes	-10.7054
day	-10.7054
▁victim	-10.7064
ja	-10.7067
▁German	-10.7069
▁birds	-10.7072
▁Chinese	-10.7086
▁Hildy	-10.7086
▁regret	-10.7086
▁terrific	-10.7086
▁Karl	-10.7086
▁cream	-10.7086
▁Sidney	-10.7087
▁Grant	-10.7087
ez	-10.7088
▁alarm	-10.7088
▁someplace	-10.7094
ino	-10.7097
hhh	-10.7097
ches	-10.7098
▁south	-10.7103
gue	-10.7108
rage	-10.7121
ram	-10.7127
▁nail	-10.7134
▁physical	-10.7144
▁guarantee	-10.7151
fu	-10.7153
▁Open	-10.7155
▁flowers	-10.7165
▁buying	-10.7166
But	-10.7172
▁Bi	-10.7176
▁Sally	-10.7179
▁matters	-10.7191
gh	-10.7194
▁newspaper	-10.7198
▁Soon	-10.7198
▁Half	-10.7201
▁fixed	-10.7207
▁v	-10.7212
▁Brown	-10.7217
▁shame	-10.7217
▁target	-10.7217
▁saving	-10.7218
▁Might	-10.7219
thing	-10.7227
rse	-10.7234
▁lab	-10.7248
get	-10.726
▁faster	-10.7265
▁Brother	-10.7266
▁depend	-10.7267
▁Eh	-10.727
▁ni	-10.7272
▁health	-10.7274
▁hung	-10.7283
▁slip	-10.7283
▁clever	-10.7283
▁amount	-10.7283
▁pump	-10.7285
▁Margo	-10.7286
▁hire	-10.7287
▁En	-10.7288
▁mail	-10.7296
▁Force	-10.731
▁invited	-10.7315
▁dare	-10.7315
11	-10.7321
ably	-10.7327
▁rate	-10.7332
▁super	-10.7333
▁Theo	-10.7335
▁bloody	-10.7339
▁reporter	-10.7345
▁Won	-10.7348
▁photo	-10.735
▁spell	-10.735
▁sc	-10.7351
▁mask	-10.7351
▁ate	-10.7352
▁Wade	-10.7353
▁chip	-10.7355
▁doctors	-10.7357
▁Fo	-10.7363
▁flu	-10.7363
ville	-10.7367
comp	-10.7372
gy	-10.7379
pper	-10.7383
▁Tim	-10.7385
▁France	-10.7405
▁psycho	-10.7407
▁attempt	-10.7417
▁earlier	-10.7417
▁Linda	-10.7417
▁result	-10.7417
▁firm	-10.7417
▁angel	-10.7417
▁eggs	-10.7417
▁Anybody	-10.7418
▁planned	-10.7419
▁Officer	-10.742
▁Sc	-10.7421
▁race	-10.7421
▁Simone	-10.7421
Don	-10.7432
body	-10.7437
▁Par	-10.7438
▁faith	-10.7442
▁streets	-10.7446
▁whore	-10.745
▁Ve	-10.7451
AL	-10.7456
▁Beth	-10.7458
▁Low	-10.7463
▁request	-10.7465
▁William	-10.7473
come	-10.7478
▁proper	-10.7479
▁style	-10.7485
▁Under	-10.7486
▁snow	-10.7487
▁loan	-10.749
▁Air	-10.7491
▁shoulder	-10.7498
bit	-10.7502
ook	-10.7506
▁grown	-10.7508
▁arrested	-10.7517
ang	-10.7548
▁admire	-10.7552
▁Clark	-10.7553
▁source	-10.7553
▁shift	-10.7553
▁tongue	-10.7553
▁spring	-10.7554
▁staff	-10.7554
▁swell	-10.7555
▁practically	-10.7556
▁statement	-10.7558
nny	-10.7576
▁Nor	-10.7582
bra	-10.7618
▁cigarettes	-10.7621
▁Rachel	-10.7621
▁Lady	-10.7623
▁Hmmm	-10.7624
▁complicated	-10.7625
▁Stone	-10.7627
▁Ka	-10.7633
▁nut	-10.7636
▁besides	-10.7639
▁Hal	-10.7643
▁pills	-10.7646
load	-10.7649
▁Him	-10.765
ral	-10.7656
nic	-10.766
▁app	-10.7661
▁opening	-10.7664
▁sn	-10.7674
▁Ja	-10.7686
▁threat	-10.7686
Ma	-10.7687
▁Police	-10.769
▁brand	-10.7691
▁cure	-10.7692
▁title	-10.7692
▁woke	-10.7693
▁chest	-10.7695
▁selling	-10.7706
▁ordered	-10.7707
▁Han	-10.771
han	-10.7711
chi	-10.772
▁Couldn	-10.773
▁shows	-10.7733
where	-10.7733
▁Grand	-10.7745
▁ye	-10.7748
▁object	-10.7751
▁Steve	-10.7756
▁Kennedy	-10.776
▁citizen	-10.776
▁unusual	-10.776
▁Funny	-10.776
▁Tony	-10.7766
▁maid	-10.7769
▁Hall	-10.7775
▁Men	-10.7779
field	-10.7781
My	-10.7785
ily	-10.779
duct	-10.7791
▁tri	-10.7797
▁fail	-10.7814
your	-10.7814
▁speaking	-10.782
▁covered	-10.7822
▁Europe	-10.7828
▁Park	-10.7828
▁leader	-10.7829
▁pie	-10.7829
▁odd	-10.7829
▁mirror	-10.783
▁plus	-10.783
▁knowledge	-10.783
▁gang	-10.783
▁dancing	-10.783
▁require	-10.7851
hold	-10.786
▁created	-10.7863
▁refuse	-10.7867
▁lover	-10.7876
▁paint	-10.7877
▁complain	-10.7878
▁poison	-10.7881
uring	-10.7887
uite	-10.7892
▁sending	-10.7895
▁Detective	-10.79
▁Enterprise	-10.79
▁habit	-10.7901
▁cigarette	-10.7901
▁cancer	-10.7901
▁signed	-10.7903
▁Kane	-10.7903
▁huge	-10.7903
▁reward	-10.7905
▁cast	-10.7905
hoo	-10.7911
▁Amy	-10.7912
▁touched	-10.7917
▁Whoa	-10.7918
▁Mmm	-10.7919
▁Need	-10.7927
▁Lu	-10.7934
▁photograph	-10.7955
▁intend	-10.7955
▁Tri	-10.7957
▁laughing	-10.7962
▁Oswald	-10.7971
▁desperate	-10.7971
▁uniform	-10.7971
▁Promise	-10.7971
▁Girl	-10.7971
▁swing	-10.7971
▁smoking	-10.7971
▁soldier	-10.7974
▁stake	-10.7975
▁intention	-10.7975
▁Ready	-10.7979
▁confused	-10.798
▁waited	-10.7982
▁Phil	-10.7984
▁swim	-10.7986
▁cur	-10.7986
ev	-10.7995
▁pulling	-10.7995
▁ended	-10.8003
▁bond	-10.8005
▁create	-10.8008
Who	-10.8014
wan	-10.8029
▁pure	-10.803
▁tellin	-10.8031
▁exact	-10.8037
▁recommend	-10.8042
---------------	-10.8042
▁edge	-10.8044
▁screen	-10.8049
▁deny	-10.8063
▁su	-10.8069
cut	-10.809
▁Thought	-10.8093
▁Sea	-10.8103
▁dirt	-10.8105
▁Clarence	-10.8114
▁downstairs	-10.8114
▁example	-10.8114
▁baseball	-10.8115
▁Money	-10.8116
▁decent	-10.8116
▁secretary	-10.8118
▁brave	-10.8129
▁rob	-10.813
▁Seems	-10.8131
▁center	-10.8131
▁nearly	-10.8141
cent	-10.8143
▁wa	-10.8147
▁sky	-10.8152
▁invite	-10.8153
▁HE	-10.8156
▁Ki	-10.816
cul	-10.8175
▁male	-10.8177
▁military	-10.8187
▁schedule	-10.8187
▁several	-10.8187
▁Hurry	-10.8187
▁Free	-10.819
hundred	-10.8212
ED	-10.8228
▁Count	-10.8252
▁incredible	-10.826
▁reputation	-10.826
▁understood	-10.826
▁model	-10.826
▁Court	-10.826
▁Texas	-10.826
▁rope	-10.8261
▁Jones	-10.8263
▁Hill	-10.8264
▁Gotta	-10.8267
▁creature	-10.827
▁trans	-10.8273
lot	-10.8275
▁lesson	-10.828
▁Play	-10.8285
▁Ram	-10.8294
▁IN	-10.8299
▁wave	-10.8303
▁Bri	-10.8314
▁assure	-10.8324
▁Especially	-10.8333
▁garbage	-10.8333
▁plain	-10.8333
▁indeed	-10.8334
▁Night	-10.8334
▁Fire	-10.8337
▁tail	-10.8338
▁details	-10.834
row	-10.8341
rie	-10.8342
▁Send	-10.8343
▁Williams	-10.8343
bie	-10.8345
▁mixed	-10.835
ology	-10.8357
▁Island	-10.8359
atic	-10.8371
RO	-10.8378
▁borrow	-10.8388
▁Best	-10.8393
▁yard	-10.8393
▁AND	-10.8399
▁represent	-10.8404
▁Happy	-10.8407
▁Neither	-10.8407
▁Tuesday	-10.8407
▁WHAT	-10.8407
▁behavior	-10.8407
▁policy	-10.8407
▁option	-10.8408
▁grew	-10.8408
▁Sister	-10.841
▁Santa	-10.8412
▁wh	-10.8417
itz	-10.8421
▁gal	-10.8425
▁cow	-10.8432
▁carefully	-10.8432
oid	-10.8432
▁oughta	-10.8433
▁Suppose	-10.8434
ear	-10.8451
▁realized	-10.8453
▁cares	-10.8454
▁Reed	-10.846
▁thinkin	-10.8461
▁Sta	-10.8463
▁Perfect	-10.8482
▁Second	-10.8482
▁appointment	-10.8482
▁audience	-10.8482
▁piano	-10.8482
▁rabbit	-10.8482
▁thief	-10.8482
▁Edward	-10.8483
▁attend	-10.8483
▁Bank	-10.8484
▁glasses	-10.8491
▁lips	-10.8499
ability	-10.851
▁member	-10.851
▁bull	-10.851
▁cock	-10.8511
▁boo	-10.8517
CH	-10.8517
▁guts	-10.8519
▁terms	-10.8524
now	-10.8531
▁Work	-10.8535
▁pot	-10.8538
lia	-10.8544
▁offered	-10.8547
▁tall	-10.8549
▁ocean	-10.8557
▁society	-10.8557
▁material	-10.8557
▁midnight	-10.8557
▁replace	-10.8559
▁Such	-10.856
▁mental	-10.8567
▁Jackie	-10.8574
there	-10.858
▁buck	-10.858
<	-10.8585
good	-10.8587
▁horses	-10.8587
▁ruined	-10.859
▁non	-10.8599
▁Close	-10.8604
▁spa	-10.8615
▁loss	-10.8617
app	-10.8631
▁birth	-10.8633
IT	-10.8633
▁brilliant	-10.8633
▁genius	-10.8633
▁illegal	-10.8633
▁Almost	-10.8633
▁Fair	-10.8638
▁breathe	-10.8645
▁remain	-10.8655
▁arrived	-10.8655
▁para	-10.8656
▁Str	-10.8656
spect	-10.8658
ying	-10.8665
▁Run	-10.8671
▁Bur	-10.8672
▁dust	-10.8677
▁eighty	-10.8679
ttle	-10.8685
win	-10.87
LE	-10.8709
▁Caesar	-10.8709
▁Department	-10.8709
▁Fifty	-10.8709
▁hidden	-10.8709
▁naked	-10.8709
▁demand	-10.8709
▁Ellie	-10.871
▁Mommy	-10.8713
▁panic	-10.8714
▁stolen	-10.8725
▁lad	-10.8732
Why	-10.874
▁Cap	-10.8753
more	-10.8764
die	-10.8782
▁official	-10.8784
▁product	-10.8785
▁female	-10.8786
▁Pull	-10.8787
▁defense	-10.8792
▁Helen	-10.88
▁showing	-10.8806
▁gu	-10.8809
▁pan	-10.8809
▁reality	-10.8813
with	-10.8816
▁clearly	-10.882
▁Stan	-10.8821
▁button	-10.8829
▁burning	-10.8834
▁success	-10.8835
▁riding	-10.8847
▁argument	-10.8864
▁grateful	-10.8864
▁period	-10.8864
▁image	-10.8865
▁ski	-10.8867
▁China	-10.8869
▁worm	-10.8874
▁curse	-10.8902
▁suck	-10.8903
▁rip	-10.8907
▁scream	-10.892
▁lies	-10.8931
▁drag	-10.8939
▁defend	-10.8941
▁chief	-10.8942
▁provide	-10.8942
▁virgin	-10.8942
▁Kelly	-10.8942
▁freedom	-10.8942
▁Terry	-10.8942
▁moral	-10.8944
▁Save	-10.8944
▁finding	-10.8946
▁standard	-10.8947
▁offense	-10.8948
▁emotional	-10.8959
▁Hang	-10.896
▁clue	-10.8963
ok	-10.8969
▁op	-10.8978
▁Wasn	-10.8989
She	-10.8991
stand	-10.9004
▁Start	-10.9014
▁Val	-10.9016
▁Either	-10.9021
▁Jabez	-10.9021
▁Plus	-10.9021
▁describe	-10.9021
▁sixteen	-10.9021
▁Sarah	-10.9021
▁ne	-10.9022
▁lord	-10.9022
▁otherwise	-10.9024
▁downtown	-10.9032
▁Move	-10.9037
▁cents	-10.904
▁director	-10.9047
Beat	-10.9055
▁term	-10.9059
why	-10.906
ash	-10.9067
▁prom	-10.9068
▁Wal	-10.907
lay	-10.9072
▁Tu	-10.9072
▁Flo	-10.9087
▁fucker	-10.9098
▁Congratulations	-10.91
▁families	-10.91
▁distance	-10.91
▁Patrick	-10.91
▁recover	-10.91
uce	-10.9101
▁prick	-10.9101
▁Claire	-10.9101
▁Feel	-10.9104
▁president	-10.9105
▁impressed	-10.9108
▁discovered	-10.9109
▁path	-10.911
▁Both	-10.9111
▁Sean	-10.9111
▁Land	-10.9116
three	-10.9133
sure	-10.9134
run	-10.9135
bye	-10.9138
▁prisoner	-10.9138
▁mile	-10.9143
▁Sw	-10.9145
▁stage	-10.9153
▁confidence	-10.918
▁equipment	-10.918
▁nigger	-10.918
▁shield	-10.918
▁Welcome	-10.918
▁stood	-10.918
▁Answer	-10.918
▁Jesse	-10.918
▁sharp	-10.918
▁Power	-10.918
▁Francisco	-10.918
▁performance	-10.9181
▁Rome	-10.9182
▁witch	-10.9183
▁clock	-10.9183
▁Today	-10.9184
▁wondered	-10.9184
nine	-10.9185
▁Carter	-10.9186
▁Other	-10.9187
cher	-10.9192
▁Name	-10.9192
▁Sue	-10.9195
▁gain	-10.9198
▁doors	-10.9199
▁Aunt	-10.9203
▁gate	-10.9205
who	-10.9206
zo	-10.9208
▁thy	-10.9219
book	-10.9219
▁nightmare	-10.922
▁tickets	-10.9245
▁12	-10.925
▁Beautiful	-10.9261
▁THAT	-10.9261
▁pussy	-10.9261
▁sayin	-10.9261
▁Kirk	-10.9261
▁bored	-10.9263
▁babe	-10.9263
CK	-10.9269
▁scary	-10.9278
▁screaming	-10.9284
▁tank	-10.9293
▁Nicky	-10.9294
▁Boss	-10.93
▁student	-10.9303
▁kicked	-10.9308
If	-10.9314
▁changes	-10.9316
▁Art	-10.9316
▁fund	-10.932
▁tied	-10.9326
▁progress	-10.9342
▁document	-10.9342
▁reckon	-10.9342
▁Madame	-10.9346
▁whom	-10.9347
▁hack	-10.9349
▁likely	-10.9349
RA	-10.935
▁winter	-10.9351
▁heading	-10.9354
▁capable	-10.9355
▁fingers	-10.9358
▁charming	-10.9359
af	-10.9373
▁chat	-10.9404
▁mix	-10.9407
▁Africa	-10.9424
▁Emperor	-10.9424
▁compliment	-10.9424
▁possibility	-10.9424
▁universe	-10.9424
▁babies	-10.9424
▁regard	-10.9424
▁spread	-10.9424
▁Hunt	-10.9424
▁rub	-10.9425
▁Rand	-10.9427
▁agreed	-10.9431
▁screwed	-10.9457
have	-10.9458
thirty	-10.9459
▁Use	-10.9467
▁Ph	-10.9468
ich	-10.9475
▁thin	-10.9477
round	-10.9479
ists	-10.9484
▁hill	-10.9505
▁badly	-10.9506
▁FUCK	-10.9506
▁ashamed	-10.9506
▁traffic	-10.9506
▁Bird	-10.9508
▁wide	-10.9508
▁wallet	-10.951
▁humor	-10.951
▁snap	-10.9511
▁Burn	-10.9512
▁Anyone	-10.9512
▁Shhh	-10.9524
▁meal	-10.9529
▁whoever	-10.9532
▁WE	-10.9542
▁Marsh	-10.9546
▁Cal	-10.9547
year	-10.9554
vol	-10.9558
▁Wa	-10.9564
ied	-10.9576
▁Fucking	-10.9576
▁dealer	-10.9587
▁belongs	-10.9589
▁political	-10.959
▁scratch	-10.959
▁Pardon	-10.959
▁Diego	-10.959
▁Nazi	-10.9591
▁Wood	-10.9591
▁jury	-10.9592
▁barely	-10.9594
▁cake	-10.9594
▁passion	-10.9599
▁novel	-10.9612
▁painting	-10.9625
▁filled	-10.9628
▁wasting	-10.9641
▁Mer	-10.9647
▁ends	-10.9655
▁insult	-10.9655
▁design	-10.9656
▁passing	-10.9665
other	-10.9666
▁perform	-10.9673
▁century	-10.9674
▁expensive	-10.9674
▁relative	-10.9674
▁nasty	-10.9674
▁monkey	-10.9674
▁Doyle	-10.9674
▁attractive	-10.9674
▁fought	-10.9674
▁fancy	-10.9675
▁Mitch	-10.9676
...""	-10.9677
▁specific	-10.9678
▁Romeo	-10.968
▁el	-10.9681
▁pet	-10.9681
▁toilet	-10.9682
▁cage	-10.9683
▁Pan	-10.9685
▁Pick	-10.9688
▁spoken	-10.9688
▁sand	-10.969
▁hunting	-10.9704
▁justice	-10.9726
here	-10.9728
▁comfort	-10.9757
▁Congress	-10.9759
▁article	-10.9759
▁popular	-10.9759
▁captain	-10.9759
▁wreck	-10.9759
▁focus	-10.9759
▁Lisa	-10.9759
▁gear	-10.9761
look	-10.9763
▁flash	-10.9765
▁Steven	-10.9769
▁apple	-10.9769
▁depends	-10.978
▁Going	-10.9792
▁chances	-10.9793
▁understanding	-10.9799
▁introduce	-10.981
▁singing	-10.9811
jo	-10.9815
▁Calm	-10.9825
▁growing	-10.9839
▁plays	-10.9839
bitch	-10.9842
▁diamond	-10.9844
▁Sleep	-10.9844
▁studio	-10.9844
▁Shoot	-10.9844
▁mob	-10.9844
▁Laura	-10.9845
▁solid	-10.9845
▁bury	-10.9845
▁OF	-10.9853
▁ah	-10.9853
▁cancel	-10.9856
▁heh	-10.9862
▁deck	-10.9864
▁bound	-10.9865
▁Hand	-10.9866
▁GO	-10.987
▁anti	-10.9878
▁bills	-10.9879
▁Plan	-10.9884
izing	-10.9885
▁Howard	-10.9902
hh	-10.991
▁Miami	-10.993
▁flesh	-10.993
▁lousy	-10.993
▁assistant	-10.9931
▁Forgive	-10.9931
▁impression	-10.9932
▁Port	-10.9934
▁OUT	-10.9937
▁safety	-10.994
▁moves	-10.994
burg	-10.9951
ache	-10.9985
▁range	-10.9992
▁Sing	-11.0012
▁civil	-11.0016
▁Baxter	-11.0017
▁Service	-11.0017
▁exciting	-11.0017
▁transport	-11.0018
▁Mind	-11.0019
▁headache	-11.002
▁Fran	-11.0027
▁rap	-11.0029
▁pu	-11.0031
▁Ricky	-11.0032
illa	-11.0036
▁cent	-11.0039
▁ph	-11.0048
VE	-11.0049
▁learning	-11.0056
▁trees	-11.0062
▁beam	-11.0068
▁divorced	-11.0073
▁Vo	-11.0082
There	-11.0086
▁ghost	-11.0086
▁Stand	-11.0087
arm	-11.0091
zy	-11.0101
▁Church	-11.0105
▁Agnes	-11.0105
▁Apparently	-11.0105
▁Club	-11.0105
▁profit	-11.0105
▁slave	-11.0105
▁Special	-11.0105
▁failure	-11.0105
▁sugar	-11.0105
read	-11.0109
ole	-11.0112
▁Pla	-11.0115
▁auto	-11.0117
▁jack	-11.0134
▁circumstances	-11.0137
▁sucker	-11.0141
▁leaves	-11.0142
▁fe	-11.0142
▁thrown	-11.0144
fifty	-11.0146
La	-11.0147
▁considered	-11.0153
Ha	-11.0157
▁armed	-11.0164
▁rare	-11.0165
▁Doug	-11.0167
▁Jew	-11.018
▁Ms	-11.0184
▁confess	-11.0184
▁spending	-11.0189
▁advantage	-11.0193
▁border	-11.0193
▁Hotel	-11.0194
▁dope	-11.0198
▁forced	-11.0205
▁leak	-11.0209
▁knees	-11.0224
▁victims	-11.0224
▁seek	-11.0232
▁sum	-11.0232
▁skill	-11.0234
▁knocked	-11.0247
hand	-11.0249
▁opera	-11.0266
▁attacked	-11.0268
▁Spe	-11.0269
▁Russia	-11.0275
▁soldiers	-11.028
▁Read	-11.028
▁easily	-11.0283
▁Number	-11.0283
▁Sailor	-11.0283
▁casino	-11.0283
▁priest	-11.0283
▁motel	-11.0283
▁device	-11.0283
ski	-11.0284
▁nun	-11.0284
▁GET	-11.0284
▁odds	-11.0285
▁Wayne	-11.0285
▁lack	-11.0288
▁theater	-11.0288
car	-11.029
▁Later	-11.0293
▁Ko	-11.0293
▁Lots	-11.0294
▁Anne	-11.0301
▁successful	-11.0316
▁tour	-11.0321
▁Boo	-11.0335
▁separate	-11.0339
je	-11.0343
▁Mine	-11.0343
▁woods	-11.0345
▁sail	-11.0348
▁Bro	-11.0349
▁owner	-11.035
▁tits	-11.0355
▁bones	-11.036
▁neighbor	-11.0361
▁Sweet	-11.0373
▁critic	-11.0373
self	-11.0373
▁broad	-11.0374
▁Judge	-11.0374
▁handsome	-11.0376
ula	-11.0378
▁Dickie	-11.038
▁Young	-11.038
▁aboard	-11.0387
▁Meet	-11.0388
away	-11.0391
▁Fall	-11.04
▁vision	-11.04
▁strip	-11.042
EL	-11.0422
bus	-11.0433
▁min	-11.0438
got	-11.0446
take	-11.0453
▁detail	-11.0455
▁shoe	-11.0457
▁Rock	-11.046
""...	-11.0461
▁nuclear	-11.0464
▁explanation	-11.0464
▁foreign	-11.0464
▁Nathan	-11.0464
▁stretch	-11.0464
▁route	-11.0464
▁permission	-11.0464
▁frame	-11.0464
▁National	-11.0464
▁Jewish	-11.0465
▁Lenny	-11.0465
▁season	-11.0467
▁bang	-11.0467
▁recently	-11.0467
▁dime	-11.0467
▁Alice	-11.0471
elle	-11.0473
try	-11.0475
▁Yup	-11.0476
▁ol	-11.0479
▁lap	-11.048
▁Case	-11.0483
▁cabin	-11.0487
▁pipe	-11.0493
gon	-11.0512
▁Book	-11.0514
▁Whose	-11.0517
gle	-11.0539
▁15	-11.055
stone	-11.0551
▁commit	-11.0554
▁Darling	-11.0555
▁available	-11.0555
▁influence	-11.0555
▁pathetic	-11.0555
▁procedure	-11.0555
▁trigger	-11.0555
▁village	-11.0555
▁crush	-11.0555
▁Enough	-11.0556
▁Room	-11.0556
▁Glad	-11.0556
▁Vada	-11.0556
▁hostage	-11.0556
key	-11.0558
▁Said	-11.0559
▁jet	-11.0561
see	-11.0568
eep	-11.0569
▁Frankie	-11.057
▁Jews	-11.0572
▁Sort	-11.0573
▁gay	-11.0574
▁breathing	-11.0605
▁suffer	-11.0607
▁Live	-11.0608
▁ki	-11.0623
▁prayer	-11.0634
▁den	-11.0636
▁mountain	-11.0641
▁Mozart	-11.0648
▁swallow	-11.0648
▁testify	-11.0648
▁Craig	-11.0648
▁Boston	-11.0648
▁argue	-11.0648
▁incident	-11.0653
▁Miller	-11.0659
▁reasonable	-11.0662
bed	-11.0663
▁NOT	-11.0666
▁exit	-11.0666
▁younger	-11.0667
sign	-11.0673
ale	-11.0678
▁loaded	-11.0682
▁gee	-11.0698
▁Lake	-11.07
▁cha	-11.0714
▁flow	-11.0721
▁engine	-11.0724
▁Gardiner	-11.0742
▁Women	-11.0742
▁elevator	-11.0742
▁equal	-11.0742
▁unhappy	-11.0742
▁thrill	-11.0742
▁cloud	-11.0742
▁egg	-11.0743
▁Year	-11.0744
▁sale	-11.0747
▁bless	-11.0748
hop	-11.0748
▁Heaven	-11.0751
▁billion	-11.0751
▁bu	-11.0754
minate	-11.0756
▁im	-11.0763
▁Dean	-11.0765
▁becoming	-11.0768
▁friendly	-11.0787
uva	-11.0805
▁Being	-11.0809
▁Cur	-11.0811
▁Matt	-11.0811
▁metal	-11.0816
ong	-11.0827
▁Friend	-11.0836
▁Chauncey	-11.0836
▁launch	-11.0836
did	-11.0836
▁cowboy	-11.0836
▁authority	-11.0837
▁arrangement	-11.0837
▁sentence	-11.0839
▁pitch	-11.0839
▁lake	-11.0839
▁YOUR	-11.0843
▁bail	-11.0844
▁engaged	-11.0845
▁Mill	-11.0846
▁Princess	-11.085
▁parties	-11.0856
▁warn	-11.0869
▁workin	-11.0872
▁led	-11.0874
▁Head	-11.0881
when	-11.0886
▁Whatta	-11.0887
iving	-11.0893
▁drinks	-11.0899
▁Ow	-11.09
▁below	-11.091
▁fishing	-11.0915
▁disc	-11.0929
▁Catherine	-11.0931
▁Elizabeth	-11.0931
▁Monsieur	-11.0931
▁Security	-11.0931
▁fantastic	-11.0931
▁miserable	-11.0931
▁Faith	-11.0931
▁rescue	-11.0931
▁carried	-11.0931
▁shrink	-11.0931
▁community	-11.0931
▁cheer	-11.0932
▁corn	-11.0933
▁Lester	-11.0934
war	-11.0934
▁basement	-11.0934
▁secure	-11.0936
▁tax	-11.0938
then	-11.0942
▁lawyers	-11.0948
▁throwing	-11.0952
▁Eat	-11.0952
▁Louise	-11.0954
SE	-11.0955
▁warning	-11.0957
▁fully	-11.0958
▁iron	-11.0961
▁Top	-11.0967
meter	-11.097
▁par	-11.0976
▁convince	-11.0993
▁Ce	-11.0994
lor	-11.1
▁spin	-11.1004
arn	-11.1007
▁fate	-11.1008
UR	-11.1009
uick	-11.1013
▁guests	-11.1017
aid	-11.1021
▁Charley	-11.1027
▁assignment	-11.1027
▁silver	-11.1027
▁stroke	-11.1027
▁Karen	-11.1027
▁conference	-11.1028
▁bread	-11.1028
▁whip	-11.1029
▁Price	-11.103
▁rumor	-11.1033
▁confession	-11.1037
itch	-11.1038
▁worker	-11.1043
part	-11.1046
▁courage	-11.1047
▁pleased	-11.1051
▁cutting	-11.1052
▁whenever	-11.1055
▁Forty	-11.1057
ught	-11.1059
▁Times	-11.1064
ility	-11.1067
▁partners	-11.1078
otic	-11.1086
▁trusted	-11.111
▁tooth	-11.1113
▁te	-11.1115
▁author	-11.1123
▁Central	-11.1124
▁Florida	-11.1124
▁Twelve	-11.1124
▁enemies	-11.1124
▁sensitive	-11.1124
▁thumb	-11.1124
▁tunnel	-11.1124
▁medicine	-11.1124
▁warrant	-11.1124
▁snake	-11.1125
▁resist	-11.1125
▁parts	-11.1125
▁stamp	-11.1127
▁secrets	-11.1131
life	-11.1135
▁Way	-11.1136
rent	-11.1136
▁Hope	-11.1137
▁pour	-11.1138
▁someday	-11.1143
▁Frances	-11.1144
▁rise	-11.1155
▁Part	-11.1165
▁DON	-11.1169
▁Hear	-11.1172
rap	-11.1181
point	-11.1184
▁stealing	-11.1188
▁noble	-11.1189
cri	-11.1197
fully	-11.1199
sky	-11.1202
▁Janet	-11.1203
▁bro	-11.1213
aving	-11.1213
▁brief	-11.1222
▁associate	-11.1222
▁horror	-11.1222
▁ordinary	-11.1222
▁sonofabitch	-11.1222
▁vehicle	-11.1222
▁cruel	-11.1222
▁Robinson	-11.1223
▁Bet	-11.1225
▁foolish	-11.1227
▁hum	-11.1231
▁embarrassing	-11.1232
▁Whoever	-11.124
▁fee	-11.1251
▁bow	-11.1264
▁treated	-11.1268
hap	-11.1269
▁fu	-11.1269
▁nor	-11.1273
▁ranch	-11.1283
▁develop	-11.13
▁Fuckin	-11.1303
▁badge	-11.1304
rely	-11.1309
▁Joseph	-11.132
▁Gale	-11.1321
▁cigar	-11.1321
▁Lydia	-11.1321
▁Starfleet	-11.1321
▁Wanna	-11.1321
▁challenge	-11.1321
▁excellent	-11.1321
▁politics	-11.1321
▁shadow	-11.1321
▁suspicious	-11.1321
▁terribly	-11.1321
▁treasure	-11.1321
▁string	-11.1323
▁package	-11.1323
▁function	-11.1324
▁Josh	-11.1324
They	-11.1332
▁spit	-11.1367
▁tap	-11.1372
rin	-11.1374
ologist	-11.1376
▁gig	-11.1382
▁bone	-11.1404
▁outfit	-11.1416
▁sales	-11.1421
▁Jessica	-11.1421
▁Wednesday	-11.1421
▁champagne	-11.1421
▁cheese	-11.1421
▁coincidence	-11.1421
▁destiny	-11.1421
▁sacrifice	-11.1421
▁Dallas	-11.1421
▁Albert	-11.1421
▁Otherwise	-11.1422
▁memories	-11.1422
▁exchange	-11.1422
▁torture	-11.1422
▁chart	-11.1422
▁juice	-11.1422
▁section	-11.1423
▁Jeanne	-11.1424
shot	-11.1439
▁entirely	-11.1445
▁straighten	-11.1446
▁host	-11.1453
▁nation	-11.1461
▁Kay	-11.1465
▁dreaming	-11.1466
van	-11.1473
har	-11.1475
wait	-11.1486
EE	-11.1489
rick	-11.1498
▁TH	-11.15
looking	-11.1501
▁Eric	-11.1506
▁interests	-11.1514
▁employ	-11.152
▁brown	-11.1522
▁editor	-11.1522
▁negative	-11.1522
▁false	-11.1522
▁pistol	-11.1522
▁CIA	-11.1522
▁joy	-11.1523
▁grandfather	-11.1523
▁chasing	-11.1523
▁alien	-11.1523
hood	-11.1524
▁Brian	-11.1525
▁reaction	-11.1526
uiet	-11.1528
▁caused	-11.1529
▁castle	-11.153
▁duck	-11.1532
▁tests	-11.1545
▁arranged	-11.1551
▁Trans	-11.1564
▁Bay	-11.1572
▁bowl	-11.1572
▁yo	-11.1575
▁fo	-11.1575
maybe	-11.1577
ius	-11.1602
▁CH	-11.1604
▁bullets	-11.1608
cat	-11.1609
ix	-11.1614
▁Mmmm	-11.1616
ko	-11.1619
▁conduct	-11.1621
▁goddam	-11.1622
▁Fifteen	-11.1624
▁eventually	-11.1624
▁graduate	-11.1624
▁include	-11.1624
▁instinct	-11.1624
▁respond	-11.1624
▁routine	-11.1624
▁vessel	-11.1624
▁clown	-11.1624
▁pirate	-11.1625
▁shopping	-11.1626
▁possession	-11.1626
▁ninety	-11.1631
▁tiny	-11.1633
lent	-11.1635
▁Jud	-11.1638
▁facts	-11.1648
▁clo	-11.1655
▁Act	-11.1656
▁solve	-11.1662
▁Ned	-11.1671
▁fer	-11.1672
▁tricks	-11.1689
ica	-11.1699
real	-11.1704
▁emotion	-11.1705
till	-11.1706
▁charm	-11.1706
ado	-11.1706
In	-11.1713
▁vo	-11.1718
▁Follow	-11.1728
▁Government	-11.1728
▁advise	-11.1728
▁benefit	-11.1728
▁changing	-11.1728
▁effort	-11.1728
▁intelligence	-11.1728
▁league	-11.1728
▁Ethan	-11.1728
▁instance	-11.1728
▁Sheila	-11.1728
▁While	-11.1728
▁mon	-11.1729
▁fence	-11.173
▁Royal	-11.1735
▁bothered	-11.1735
▁personality	-11.1735
▁bump	-11.1736
▁tries	-11.1738
▁tend	-11.1739
▁particularly	-11.1741
rud	-11.1744
▁Mayor	-11.1752
▁However	-11.1766
oop	-11.177
▁Wha	-11.1771
bag	-11.1781
▁Sun	-11.1781
ike	-11.1783
cky	-11.1787
▁hon	-11.1792
▁served	-11.1798
hear	-11.181
▁remembered	-11.1813
▁thousands	-11.1817
▁dies	-11.182
▁Federation	-11.1832
▁Pearl	-11.1832
▁chocolate	-11.1832
▁communication	-11.1832
▁satisfied	-11.1832
▁seventeen	-11.1832
▁committee	-11.1832
▁surface	-11.1832
▁Debbie	-11.1832
▁Susie	-11.1832
▁Alexander	-11.1832
▁Otis	-11.1832
▁crook	-11.1832
▁coward	-11.1835
▁Bible	-11.1838
bur	-11.1842
▁directly	-11.1846
▁healthy	-11.1847
▁spy	-11.185
▁engineer	-11.1851
▁checking	-11.1856
▁Roman	-11.1856
put	-11.1859
▁signs	-11.1868
place	-11.1877
friend	-11.1882
▁mini	-11.1883
ugh	-11.1884
▁angle	-11.1885
▁occasion	-11.1886
▁appears	-11.1889
▁yell	-11.1893
▁BE	-11.1898
▁wood	-11.1903
▁Says	-11.191
▁Va	-11.1927
Hey	-11.193
▁--"	-11.1934
▁counting	-11.1936
▁Claude	-11.1937
▁Federal	-11.1937
▁Naturally	-11.1937
▁Viktor	-11.1937
▁ignore	-11.1937
▁thirteen	-11.1937
▁gimme	-11.1937
▁nonsense	-11.1937
▁Lemme	-11.1937
▁contain	-11.1937
▁cleaned	-11.1937
▁zero	-11.1937
▁passport	-11.1938
▁River	-11.1939
▁Superman	-11.1939
▁wit	-11.194
▁Marge	-11.194
▁protection	-11.1946
▁Toby	-11.1949
▁rot	-11.1954
AD	-11.1955
▁slowly	-11.1962
▁payment	-11.1962
ew	-11.1964
▁Rosa	-11.1972
▁link	-11.1974
▁Jan	-11.1977
▁cave	-11.1987
▁parking	-11.1987
▁blown	-11.1989
▁brings	-11.1996
▁ge	-11.2008
▁enter	-11.2009
ella	-11.201
▁shoulda	-11.2012
▁Sh	-11.202
▁trained	-11.2025
ww	-11.2025
mis	-11.203
▁Kind	-11.2037
▁higher	-11.2037
▁Gri	-11.2038
▁Nothin	-11.204
▁Wrong	-11.2043
▁interrupt	-11.2043
▁location	-11.2043
▁psychiatrist	-11.2043
▁technical	-11.2043
▁Graham	-11.2043
▁Heather	-11.2043
▁Barnes	-11.2043
▁robbed	-11.2044
▁therapy	-11.2044
▁blah	-11.2044
▁True	-11.2044
▁Starling	-11.2046
▁Angeles	-11.2047
▁minor	-11.2051
▁Lois	-11.2051
""..."	-11.2058
ense	-11.2061
any	-11.2069
▁wherever	-11.2079
▁Fu	-11.2084
""?	-11.2085
▁stronger	-11.2089
▁demon	-11.2092
foot	-11.2103
▁jumped	-11.2107
▁walks	-11.2109
▁row	-11.2111
Now	-11.2117
pping	-11.2119
▁harder	-11.2122
▁prob	-11.2132
▁ON	-11.2137
▁aside	-11.2137
▁junk	-11.2141
▁staring	-11.2145
▁capital	-11.2151
▁commercial	-11.2151
▁financial	-11.2151
▁squad	-11.2151
▁chemical	-11.2151
▁exercise	-11.2151
▁fourteen	-11.2151
▁Webster	-11.2151
▁Thelma	-11.2151
▁stairs	-11.2151
▁pizza	-11.2151
▁Sugar	-11.2151
▁yellow	-11.2152
▁Diane	-11.2152
▁Shelly	-11.2154
yard	-11.2155
▁til	-11.2156
▁guards	-11.216
▁Gus	-11.2161
AM	-11.2165
graph	-11.2168
▁bleeding	-11.2168
▁cleaning	-11.2169
▁delivery	-11.217
▁anyhow	-11.2173
▁gi	-11.2185
▁tw	-11.2187
▁wo	-11.2203
▁tent	-11.2209
▁Liz	-11.2217
▁based	-11.2219
hm	-11.222
▁stranger	-11.2226
▁Tor	-11.2232
▁leading	-11.2234
,000	-11.2235
▁trail	-11.2246
▁Tan	-11.2247
▁Jacqueline	-11.226
▁bargain	-11.226
▁nineteen	-11.226
▁valuable	-11.226
▁grandmother	-11.226
▁stress	-11.226
▁golf	-11.226
▁Understand	-11.226
▁instructions	-11.226
▁existence	-11.226
▁football	-11.2261
▁spill	-11.2261
▁gather	-11.2261
▁Lucky	-11.2265
▁blonde	-11.2265
▁mister	-11.2265
▁collection	-11.2266
▁UP	-11.2268
▁began	-11.2272
▁warned	-11.2285
▁soup	-11.2292
▁Doe	-11.2312
▁wore	-11.2316
ET	-11.2322
MY	-11.2326
▁Wil	-11.2326
▁highly	-11.2327
TA	-11.2329
▁ability	-11.2329
▁asses	-11.2332
▁Andrew	-11.2334
bel	-11.2342
▁Again	-11.2365
▁Dunbar	-11.2369
▁Kevin	-11.2369
▁School	-11.2369
▁monitor	-11.2369
▁oxygen	-11.2369
▁Senate	-11.2369
▁organization	-11.237
▁trash	-11.237
▁serial	-11.237
▁Morning	-11.237
▁Lawson	-11.237
▁Jenny	-11.2371
▁review	-11.2371
▁Jamie	-11.2371
▁manner	-11.2371
▁actress	-11.2371
▁Dark	-11.2372
▁Light	-11.2372
▁blast	-11.2373
▁treatment	-11.2374
▁scale	-11.2375
▁suggestion	-11.238
nky	-11.2389
▁Gar	-11.2391
▁Grandma	-11.2393
▁suffering	-11.2396
▁Walk	-11.2402
▁Sch	-11.2416
▁windows	-11.2435
50	-11.2441
▁chase	-11.2453
▁mole	-11.2458
▁headed	-11.246
eau	-11.2476
▁millions	-11.2477
▁scr	-11.2477
▁belt	-11.2478
▁prior	-11.2479
▁blank	-11.248
▁precious	-11.2481
▁smooth	-11.2481
▁testimony	-11.2481
▁Devil	-11.2481
▁loving	-11.2481
▁Virginia	-11.2481
▁Freddie	-11.2481
▁estate	-11.2481
▁stiff	-11.2483
▁Ly	-11.2484
▁Also	-11.2484
▁Marcus	-11.2488
▁pity	-11.249
▁dating	-11.2491
▁charges	-11.2491
▁Meaning	-11.2495
▁Drive	-11.2501
▁ghosts	-11.2504
▁Si	-11.252
even	-11.2528
aries	-11.2531
ooo	-11.2534
▁pound	-11.2538
▁sexy	-11.2554
▁qua	-11.2556
ically	-11.2558
▁reached	-11.2563
▁Prince	-11.2576
turn	-11.2577
▁events	-11.2581
▁taxi	-11.2584
▁Ken	-11.2588
▁Claudia	-11.2593
▁Veronica	-11.2593
▁accomplish	-11.2593
▁frozen	-11.2593
▁museum	-11.2593
▁plastic	-11.2593
▁commission	-11.2593
▁swimming	-11.2593
▁knight	-11.2593
list	-11.2594
▁Vince	-11.2594
▁glory	-11.2594
▁scrap	-11.2594
▁concept	-11.2595
▁lick	-11.2596
▁Grail	-11.2597
▁Barry	-11.2598
▁rig	-11.2598
▁surely	-11.261
▁Parker	-11.2618
▁lifetime	-11.2621
▁bags	-11.2622
▁Gui	-11.2624
▁setting	-11.2624
face	-11.2631
▁convinced	-11.2633
▁Dear	-11.2634
state	-11.2636
▁drawing	-11.2637
tell	-11.2638
▁Rich	-11.2644
▁jokes	-11.2652
▁moron	-11.2653
▁gut	-11.2664
lash	-11.267
▁ja	-11.2675
about	-11.2681
▁raised	-11.2682
▁customers	-11.269
▁produce	-11.2697
▁zoo	-11.2705
▁entertain	-11.2705
▁Cat	-11.2706
▁Stephen	-11.2707
▁Wyatt	-11.2707
▁ancient	-11.2707
▁Johnnie	-11.2707
▁adult	-11.2707
▁coast	-11.2707
▁rug	-11.2707
ization	-11.2708
▁Jill	-11.2709
▁hint	-11.271
▁FOR	-11.271
▁Norma	-11.2713
▁50	-11.2713
pol	-11.2714
▁hurting	-11.2717
▁Bull	-11.2719
▁sweetie	-11.2723
▁Las	-11.2734
▁Hm	-11.2739
▁Shouldn	-11.274
▁Surely	-11.2744
▁grip	-11.2745
▁fighter	-11.2745
▁Vice	-11.2748
▁pink	-11.275
▁rag	-11.2759
▁Much	-11.276
▁national	-11.2787
▁arrive	-11.2787
keep	-11.2802
live	-11.2805
▁Jon	-11.281
▁channel	-11.2822
▁individual	-11.2822
▁joking	-11.2822
▁reservation	-11.2822
▁signature	-11.2822
▁surrender	-11.2822
▁federal	-11.2822
▁proceed	-11.2822
▁presence	-11.2822
▁occurred	-11.2822
▁rude	-11.2822
▁balance	-11.2822
▁tears	-11.2822
pie	-11.2822
▁debt	-11.2822
▁Evan	-11.2823
▁kilo	-11.2823
▁terrorist	-11.2825
▁walls	-11.2827
▁embarrassed	-11.2831
▁Law	-11.2833
rist	-11.2838
▁naturally	-11.2839
▁officers	-11.2842
▁movement	-11.2843
▁bowling	-11.2848
▁policeman	-11.2848
▁fed	-11.2848
▁goddamned	-11.2851
▁failed	-11.2853
▁Julie	-11.2858
▁fourth	-11.286
▁Gen	-11.2861
fine	-11.2862
pped	-11.287
Hi	-11.2873
▁Pay	-11.2879
▁Post	-11.2881
▁degree	-11.2888
▁Ahh	-11.2888
Course	-11.289
▁Hy	-11.2894
▁counter	-11.2908
ega	-11.2912
▁assholes	-11.2919
▁flag	-11.2924
▁100	-11.2925
iding	-11.2933
▁basic	-11.2937
▁Barbara	-11.2938
▁Comrade	-11.2938
▁Lampert	-11.2938
▁Mulwray	-11.2938
▁champion	-11.2938
▁drift	-11.2938
▁including	-11.2938
▁journey	-11.2938
▁privilege	-11.2938
▁rifle	-11.2938
▁supply	-11.2938
▁prevent	-11.2938
▁permit	-11.2938
▁Wendy	-11.2938
▁makin	-11.2939
▁average	-11.2939
▁shotgun	-11.2939
▁investment	-11.2939
▁tick	-11.2941
▁worrying	-11.2942
▁Glenn	-11.2943
▁haul	-11.2948
▁theatre	-11.2949
▁Gary	-11.2964
▁woulda	-11.2965
▁received	-11.2969
▁holy	-11.2969
▁End	-11.297
Be	-11.2975
▁25	-11.2988
▁suits	-11.2989
▁holes	-11.2992
yeah	-11.3008
▁butter	-11.3012
wood	-11.3016
▁escaped	-11.302
▁advance	-11.3021
cit	-11.3024
print	-11.3033
▁expose	-11.3049
▁tin	-11.3051
ech	-11.3054
▁happiness	-11.3055
▁Business	-11.3055
▁statue	-11.3055
▁struck	-11.3056
▁beef	-11.3056
▁closing	-11.3056
▁Vincent	-11.3056
▁underground	-11.3057
▁trapped	-11.3057
▁winning	-11.3058
ax	-11.3059
▁Director	-11.3063
▁coke	-11.3064
▁murders	-11.3065
▁aim	-11.307
▁Americans	-11.3074
▁Came	-11.3081
▁cable	-11.3093
▁mate	-11.3103
▁Fun	-11.3103
▁lower	-11.3103
▁sounded	-11.3114
thousand	-11.3127
power	-11.3128
will	-11.3132
▁settled	-11.3137
▁arrange	-11.3139
inal	-11.3139
▁Pin	-11.314
▁protecting	-11.3162
ama	-11.3168
▁occur	-11.3174
▁According	-11.3174
▁Company	-11.3174
▁Detroit	-11.3174
▁Elliot	-11.3174
▁Imagine	-11.3174
▁Inspector	-11.3174
▁cocaine	-11.3174
▁intelligent	-11.3174
▁revenge	-11.3174
▁violence	-11.3174
▁shelter	-11.3175
▁tune	-11.3175
▁Duke	-11.3177
ural	-11.3178
▁Marylin	-11.3178
▁quote	-11.3179
▁tro	-11.3182
▁coulda	-11.3183
▁Lex	-11.3183
bar	-11.3184
▁Lucy	-11.3184
▁askin	-11.3191
ison	-11.3197
ept	-11.3199
▁ST	-11.32
▁Bond	-11.3207
▁Chris	-11.3208
▁bend	-11.3215
▁Shu	-11.3216
▁cats	-11.3216
▁Mars	-11.3221
▁pill	-11.3236
▁Fro	-11.3243
▁Rod	-11.3244
ether	-11.3252
▁knee	-11.3254
▁jam	-11.3257
▁Speak	-11.3273
▁Bear	-11.3279
▁darlin	-11.3291
▁Excellent	-11.3295
▁Gittes	-11.3295
▁Kansas	-11.3295
▁Mexican	-11.3295
▁Peace	-11.3295
▁column	-11.3295
▁complex	-11.3295
▁conscience	-11.3295
▁liquor	-11.3295
▁solution	-11.3295
▁underwear	-11.3295
▁worship	-11.3295
▁repair	-11.3295
▁Bureau	-11.3295
▁guide	-11.3296
▁bride	-11.3296
▁LA	-11.3298
▁fuel	-11.3298
▁Duff	-11.3301
▁Peel	-11.3304
▁freeze	-11.3305
▁stopping	-11.3306
▁poem	-11.3314
▁Fish	-11.3315
▁rape	-11.3315
▁tale	-11.332
ien	-11.3323
new	-11.3325
▁tag	-11.3334
▁Pal	-11.3335
long	-11.3336
▁INT	-11.3342
aking	-11.3345
▁lit	-11.3348
▁sec	-11.3362
▁colored	-11.3363
▁Bel	-11.3365
ani	-11.3374
▁Inter	-11.3375
▁hid	-11.3378
posed	-11.3384
▁dish	-11.3394
Not	-11.3399
▁wings	-11.3408
▁Honest	-11.3411
▁sink	-11.3413
▁Japanese	-11.3417
▁drum	-11.3417
▁jungle	-11.3417
▁pleasant	-11.3417
▁supplies	-11.3417
▁Berlin	-11.3417
▁Hitler	-11.3417
▁mystery	-11.3417
▁fruit	-11.3418
▁supper	-11.3418
▁appearance	-11.3418
▁Bal	-11.3419
▁thick	-11.342
▁Board	-11.3421
▁bars	-11.3421
▁Maxine	-11.3423
▁agreement	-11.3423
▁background	-11.3425
▁Cross	-11.3429
▁hitting	-11.3453
▁bastards	-11.3453
roll	-11.3456
▁comic	-11.346
▁dough	-11.3467
▁degrees	-11.347
▁der	-11.347
▁eaten	-11.3471
▁shown	-11.3484
▁enjoyed	-11.349
▁joined	-11.3501
mine	-11.3504
▁beating	-11.3508
▁hip	-11.351
▁members	-11.3511
▁exception	-11.3515
▁earn	-11.3516
▁Scar	-11.352
▁boots	-11.3524
▁affect	-11.3538
▁Caitlin	-11.354
▁Hannah	-11.354
▁Harvard	-11.354
▁Jersey	-11.354
▁Vulcan	-11.354
▁library	-11.354
▁muscle	-11.354
▁appeal	-11.354
▁cocktail	-11.354
▁clinic	-11.3541
▁Jeez	-11.3541
▁Freddy	-11.3541
▁adjust	-11.3541
▁Sandy	-11.3543
▁resign	-11.3544
▁shout	-11.3545
▁poet	-11.3548
oke	-11.355
▁Gold	-11.3552
▁useful	-11.3557
▁Made	-11.3563
▁Ford	-11.3566
▁marks	-11.3567
▁toast	-11.3572
▁Course	-11.3592
▁patients	-11.3593
Mr	-11.362
▁cor	-11.3621
tial	-11.3622
▁yards	-11.3629
▁teaching	-11.363
-1	-11.3655
wer	-11.3659
▁Avenue	-11.3665
▁Dignan	-11.3665
▁Hospital	-11.3665
▁Ripley	-11.3665
▁University	-11.3665
▁adventure	-11.3665
▁lunatic	-11.3665
▁phony	-11.3665
▁senior	-11.3665
▁skull	-11.3665
▁steak	-11.3665
▁Alvy	-11.3665
▁flies	-11.3665
▁surf	-11.3665
▁pride	-11.3666
▁species	-11.3666
▁series	-11.3666
▁salesman	-11.3668
▁frankly	-11.3668
▁circle	-11.3673
▁mountains	-11.3675
▁Christian	-11.3678
▁Mason	-11.3679
LO	-11.368
▁County	-11.3682
▁Sex	-11.3686
▁dock	-11.3689
▁psychic	-11.3696
▁media	-11.3709
▁Kat	-11.3713
▁method	-11.372
▁touching	-11.3721
▁locker	-11.3727
▁Boys	-11.3741
rated	-11.375
▁cheat	-11.3751
▁kin	-11.3758
▁inform	-11.3771
▁smells	-11.3772
▁Herr	-11.3774
▁beside	-11.379
fore	-11.3791
▁Arthur	-11.3792
▁Austin	-11.3792
▁Brooklyn	-11.3792
▁holiday	-11.3792
▁homicide	-11.3792
▁impulse	-11.3792
▁polite	-11.3792
▁Truman	-11.3792
▁steady	-11.3792
▁queen	-11.3792
▁ease	-11.3792
▁suitcase	-11.3792
▁committed	-11.3792
▁motor	-11.3792
▁surgeon	-11.3793
▁Nixon	-11.3793
▁Horse	-11.3794
▁prize	-11.3797
erie	-11.3798
▁sack	-11.38
▁Slow	-11.3801
▁Ye	-11.3801
▁invest	-11.3801
▁chop	-11.3804
▁Bert	-11.3807
▁Hav	-11.3814
▁Kate	-11.382
▁Willie	-11.3824
zer	-11.383
cia	-11.3832
▁transfer	-11.3845
▁county	-11.3848
▁soap	-11.3853
▁union	-11.3856
▁pur	-11.3861
▁Sad	-11.3863
▁managed	-11.3863
▁pr	-11.3865
▁receive	-11.3886
▁remove	-11.3888
▁goodness	-11.3891
fer	-11.3893
▁disturb	-11.39
▁drown	-11.3901
▁deposit	-11.3916
▁Hudson	-11.392
▁Jennifer	-11.392
▁approve	-11.392
▁concentrate	-11.392
▁imagination	-11.392
▁invitation	-11.392
▁opposite	-11.392
▁paranoid	-11.392
▁compare	-11.392
▁Israel	-11.392
▁element	-11.392
▁retard	-11.392
▁measure	-11.392
▁audition	-11.3921
▁Angel	-11.3921
▁flee	-11.3921
▁loyalty	-11.3921
▁severe	-11.3922
▁flower	-11.3922
▁Water	-11.3924
▁Lula	-11.3925
▁Shaw	-11.3926
dition	-11.3927
▁Beat	-11.3928
▁discussion	-11.3929
pose	-11.3931
▁Yu	-11.3932
▁punk	-11.3935
▁fellas	-11.3937
▁threatened	-11.3939
▁Greg	-11.3941
▁Oz	-11.3942
To	-11.3952
▁begins	-11.3968
▁Dana	-11.3989
script	-11.4002
girl	-11.4004
▁rocks	-11.4018
▁qui	-11.4022
▁Clo	-11.4025
▁tur	-11.4036
cap	-11.4038
▁Julia	-11.4042
ander	-11.4047
▁Beaumont	-11.405
▁Definitely	-11.405
▁Obviously	-11.405
▁potential	-11.405
▁revolution	-11.405
▁slut	-11.405
▁symbol	-11.405
▁Navy	-11.405
▁root	-11.405
▁Small	-11.405
▁shore	-11.405
▁US	-11.4051
▁Chuck	-11.4051
▁employee	-11.4051
▁spook	-11.4051
▁Bomb	-11.4053
▁waitress	-11.4056
▁beast	-11.406
▁lion	-11.4065
▁witnesses	-11.4065
▁Drop	-11.4071
acy	-11.4078
▁dreamed	-11.4081
▁sup	-11.4086
▁Mikey	-11.4092
Re	-11.4093
▁delivered	-11.4094
spite	-11.4096
▁washed	-11.4106
▁sue	-11.4109
LY	-11.4109
▁notes	-11.4115
▁treating	-11.412
born	-11.413
▁strangers	-11.4133
father	-11.4136
▁Juliet	-11.4141
▁returned	-11.4158
▁spoil	-11.4162
ister	-11.4168
▁horn	-11.4174
▁convict	-11.4177
▁actual	-11.4178
▁Ambassador	-11.4182
▁Governor	-11.4182
▁Private	-11.4182
▁THIS	-11.4182
▁breast	-11.4182
▁depressed	-11.4182
▁railroad	-11.4182
▁squeeze	-11.4182
▁Beverly	-11.4182
▁Guard	-11.4182
▁Fletch	-11.4182
▁Gonna	-11.4182
▁Iraq	-11.4182
▁chew	-11.4182
▁forth	-11.4182
▁pimp	-11.4183
▁slipped	-11.4183
▁Grady	-11.4183
▁weakness	-11.4184
▁neat	-11.4185
▁Data	-11.4189
was	-11.4195
▁Heh	-11.4204
▁involve	-11.4205
▁useless	-11.4206
▁exists	-11.4208
sieu	-11.4208
▁outa	-11.4208
▁former	-11.4212
▁butcher	-11.4216
▁Luc	-11.422
▁newspapers	-11.422
▁log	-11.4223
wee	-11.4224
Th	-11.4229
▁tower	-11.4234
▁wishes	-11.4246
iness	-11.4254
▁Tea	-11.4261
ken	-11.4265
action	-11.427
▁answered	-11.4279
▁threaten	-11.4281
▁mid	-11.4289
▁Sim	-11.4291
▁hooker	-11.4305
▁skip	-11.4306
▁Elvis	-11.4315
▁consequence	-11.4315
▁establish	-11.4315
▁powder	-11.4315
▁sample	-11.4315
▁Clean	-11.4315
▁collar	-11.4315
ternational	-11.4315
▁transmission	-11.4315
▁version	-11.4315
▁contest	-11.4315
▁lung	-11.4316
▁Drink	-11.4317
▁Chicken	-11.4317
iate	-11.4319
▁darkness	-11.4322
▁farmer	-11.4322
▁attracted	-11.4325
▁squi	-11.4328
▁Paulie	-11.433
ucker	-11.4331
▁fallen	-11.4345
▁designed	-11.4346
▁Brothers	-11.435
▁Germans	-11.4351
▁Neil	-11.4359
▁packed	-11.4367
▁plug	-11.4376
▁pushed	-11.438
▁Lay	-11.4392
▁Cuban	-11.4397
▁Bon	-11.4402
bird	-11.4403
▁mighty	-11.4403
solve	-11.4417
▁kissed	-11.4417
▁Many	-11.4429
▁creatures	-11.443
▁publish	-11.4431
NT	-11.4432
▁Command	-11.4439
▁Kim	-11.4441
▁Pen	-11.4442
▁prepare	-11.4447
▁express	-11.4449
▁jewel	-11.4449
▁Blood	-11.445
▁wolf	-11.445
▁buzz	-11.445
▁combination	-11.445
▁passenger	-11.445
▁promotion	-11.445
▁Chrissake	-11.445
▁Evil	-11.445
▁Tyler	-11.445
▁anxious	-11.445
▁salary	-11.445
▁related	-11.445
▁wives	-11.445
▁motive	-11.445
▁Left	-11.445
▁Clear	-11.445
▁Short	-11.4451
▁east	-11.4451
▁jewelry	-11.4451
▁orange	-11.4452
▁rose	-11.4452
▁penny	-11.4452
fucking	-11.4455
▁Italy	-11.4456
▁everyday	-11.4457
▁according	-11.4457
▁detect	-11.4457
▁Wild	-11.4458
▁worthless	-11.4461
▁Jackson	-11.4466
itude	-11.4467
▁neighbors	-11.4468
▁Scotty	-11.4475
▁yelling	-11.4479
▁ARE	-11.4511
▁Deal	-11.4512
▁Looking	-11.4513
▁dumped	-11.4513
▁students	-11.4515
iz	-11.4518
oma	-11.4523
cross	-11.4525
▁dull	-11.4528
pack	-11.4533
nia	-11.4556
▁convent	-11.4561
▁connect	-11.4563
▁bleed	-11.4565
▁Cou	-11.4569
▁bid	-11.4579
▁takin	-11.4584
▁Crawford	-11.4587
▁Minister	-11.4587
▁Unfortunately	-11.4587
▁Yesterday	-11.4587
▁appropriate	-11.4587
▁education	-11.4587
▁response	-11.4587
▁steam	-11.4587
▁culture	-11.4587
▁steel	-11.4587
▁scheme	-11.4587
▁parole	-11.4587
▁urgent	-11.4588
▁couch	-11.4588
▁Teddy	-11.459
rough	-11.4594
TH	-11.4595
▁Edie	-11.4599
▁whale	-11.4605
▁net	-11.4612
▁retired	-11.4612
▁connected	-11.4615
▁Gray	-11.4619
▁however	-11.4625
▁rank	-11.4627
▁Pass	-11.4631
Your	-11.4635
▁pile	-11.4635
▁Full	-11.4636
▁bri	-11.464
▁pretending	-11.4648
▁current	-11.465
▁Off	-11.4662
wise	-11.4678
Okay	-11.4678
▁Coming	-11.4695
▁messed	-11.4695
▁confirm	-11.4707
▁Dog	-11.4707
▁alley	-11.472
▁loyal	-11.4725
▁Secret	-11.4725
▁April	-11.4726
▁Malkovich	-11.4726
▁Moscow	-11.4726
▁Spanish	-11.4726
▁religious	-11.4726
▁widow	-11.4726
▁lecture	-11.4726
▁Third	-11.4726
▁Truth	-11.4726
▁honeymoon	-11.4726
▁improve	-11.4726
▁Ranger	-11.4726
▁offering	-11.4726
▁surgery	-11.4726
▁racket	-11.4726
▁faint	-11.4727
▁role	-11.4727
▁giant	-11.4727
▁civilian	-11.4728
▁Correct	-11.4728
▁brick	-11.4729
▁Clay	-11.473
▁passage	-11.4732
▁homework	-11.4739
▁June	-11.4739
▁twisted	-11.474
▁Homer	-11.4743
▁disappointed	-11.4745
▁Justice	-11.4747
▁operate	-11.4747
ji	-11.4762
▁fashion	-11.4762
▁honestly	-11.4765
link	-11.4781
▁Used	-11.4788
▁shy	-11.4792
▁Dil	-11.4792
▁mass	-11.4798
▁manners	-11.4808
▁sucks	-11.4813
▁Ruth	-11.4813
mouth	-11.482
▁Shi	-11.482
▁remains	-11.4826
▁tire	-11.4835
position	-11.4837
▁lessons	-11.4847
▁kissing	-11.485
▁Set	-11.4858
▁unfortunate	-11.486
▁chose	-11.486
hor	-11.486
range	-11.4864
▁Dur	-11.4865
▁pale	-11.4866
▁flip	-11.4867
▁Vietnam	-11.4867
▁Auggie	-11.4867
▁Catholic	-11.4867
▁Cynthia	-11.4867
▁Dennis	-11.4867
▁Empire	-11.4867
▁Kramer	-11.4867
▁Murder	-11.4867
▁although	-11.4867
▁campaign	-11.4867
▁compromise	-11.4867
▁profile	-11.4867
▁reflect	-11.4867
▁satellite	-11.4867
▁whiskey	-11.4867
▁Satan	-11.4867
▁belief	-11.4867
▁dawn	-11.4867
▁mercy	-11.4867
▁Warren	-11.4867
▁scientist	-11.4867
▁construction	-11.4868
▁plot	-11.4868
▁Leonard	-11.4869
▁Irish	-11.4869
▁NOW	-11.487
▁Tower	-11.487
▁filthy	-11.4871
▁winner	-11.4873
▁disgusting	-11.4879
▁invented	-11.4881
▁HA	-11.4888
berg	-11.4903
All	-11.4906
hmm	-11.4919
angle	-11.4925
▁stepp	-11.4926
▁git	-11.4947
▁tube	-11.4956
worth	-11.4962
▁Cho	-11.4971
oph	-11.4986
▁disappoint	-11.4989
▁ending	-11.4991
▁locate	-11.4994
▁sandwich	-11.5005
▁Agency	-11.501
▁Saunders	-11.501
▁Ninotchka	-11.501
▁buddies	-11.501
▁disaster	-11.501
▁enormous	-11.501
▁explore	-11.501
▁remote	-11.501
▁violent	-11.501
▁whisper	-11.501
▁palace	-11.501
▁Ordell	-11.501
▁defeat	-11.501
▁quality	-11.501
▁Indeed	-11.501
▁gross	-11.501
▁Couple	-11.501
▁Child	-11.501
▁Screw	-11.5011
▁digging	-11.5011
▁wrap	-11.5011
▁clip	-11.5011
▁Seriously	-11.5012
▁legend	-11.5012
▁salt	-11.5012
▁haunt	-11.5012
yo	-11.5013
▁march	-11.5014
▁chosen	-11.5018
▁Pack	-11.5023
▁friendship	-11.5024
mark	-11.503
▁Victoria	-11.5033
▁cared	-11.5036
▁diver	-11.5047
izz	-11.5049
▁wounded	-11.5058
▁Die	-11.5068
▁Buy	-11.5075
EM	-11.5083
▁nightmares	-11.5083
▁fry	-11.5095
▁considering	-11.5101
wife	-11.5107
please	-11.5107
Where	-11.5108
▁dame	-11.5113
dog	-11.5118
▁vampires	-11.512
▁twin	-11.5122
▁del	-11.5123
▁Trying	-11.5129
▁wander	-11.5133
▁nap	-11.5142
▁Lombard	-11.5149
▁Simon	-11.5152
▁Knox	-11.5155
▁Lincoln	-11.5155
▁Reverend	-11.5155
▁bachelor	-11.5155
▁entitled	-11.5155
▁generous	-11.5155
▁DNA	-11.5155
▁concert	-11.5155
▁Cooper	-11.5155
▁madame	-11.5155
▁Depends	-11.5155
▁civilization	-11.5155
▁Ellen	-11.5155
▁slap	-11.5155
▁kidnapped	-11.5155
▁saint	-11.5155
▁Nurse	-11.5155
▁rotten	-11.5155
▁Stanley	-11.5156
▁Super	-11.5156
▁poetry	-11.5156
▁selfish	-11.5158
▁vow	-11.5159
ently	-11.5165
▁factory	-11.5167
▁abandoned	-11.5167
▁Party	-11.5173
▁bush	-11.5176
▁threatening	-11.5179
pend	-11.5181
▁aunt	-11.5186
▁Leg	-11.5194
▁troops	-11.5201
▁bay	-11.5209
▁listened	-11.5213
▁dam	-11.5219
pan	-11.5221
▁mistaken	-11.5223
▁meantime	-11.5226
sses	-11.524
Did	-11.525
Just	-11.5254
think	-11.5255
Look	-11.5257
nothing	-11.5258
jack	-11.5258
coming	-11.5268
▁smash	-11.5282
▁betray	-11.5286
▁grant	-11.5287
▁robber	-11.5293
ological	-11.5301
▁Hawk	-11.5301
▁Animal	-11.5302
▁Dewey	-11.5302
▁Doolittle	-11.5302
▁brush	-11.5302
▁cripple	-11.5302
▁fantasy	-11.5302
▁uncomfortable	-11.5302
▁volunteer	-11.5302
▁drill	-11.5302
▁Word	-11.5302
▁Holly	-11.5302
▁reveal	-11.5302
▁network	-11.5302
▁Wolf	-11.5302
▁basis	-11.5302
▁costume	-11.5302
▁bodyguard	-11.5302
▁ripped	-11.5303
▁dropping	-11.5306
▁Gill	-11.5308
▁Deeds	-11.5309
▁lean	-11.5309
▁princess	-11.5309
▁bribe	-11.5316
▁Lock	-11.5325
▁strain	-11.5328
▁Gosh	-11.5332
▁Bee	-11.5333
▁hose	-11.5335
▁institution	-11.5339
▁wing	-11.5348
acle	-11.5354
ffer	-11.536
▁feelin	-11.5368
▁Gun	-11.5369
▁Jen	-11.5369
Me	-11.538
▁CAN	-11.5381
▁Tak	-11.5382
fire	-11.5386
▁tan	-11.5387
▁crossed	-11.5389
▁hop	-11.5389
▁sheets	-11.5394
▁anger	-11.54
▁announce	-11.5402
break	-11.5405
kill	-11.5434
▁Madam	-11.5444
▁scientists	-11.545
▁Casablanca	-11.5451
▁McMurphy	-11.5451
▁Orleans	-11.5451
▁Venice	-11.5451
▁patience	-11.5451
▁phrase	-11.5451
▁professor	-11.5451
▁silence	-11.5451
▁nigga	-11.5451
▁assigned	-11.5451
▁salad	-11.5451
▁declare	-11.5451
▁slice	-11.5452
▁Throw	-11.5452
▁Bridge	-11.5452
▁blanket	-11.5453
▁Crow	-11.5453
▁phase	-11.5454
▁yuh	-11.5454
▁Somewhere	-11.5454
▁Seventy	-11.5455
ality	-11.5456
▁purse	-11.5464
▁Judy	-11.5467
▁Diz	-11.5468
▁belly	-11.5469
▁betrayed	-11.547
own	-11.5478
▁Pink	-11.5486
▁ideal	-11.5492
▁Opera	-11.5507
▁Kiss	-11.5509
▁organize	-11.551
▁pad	-11.5518
aging	-11.552
▁Hank	-11.5523
▁heck	-11.5528
▁raped	-11.553
▁pushing	-11.5536
rich	-11.5549
▁jumping	-11.5555
poo	-11.5563
▁whack	-11.5585
▁qu	-11.5589
God	-11.5592
▁owned	-11.5595
▁gentle	-11.56
▁Anthony	-11.5602
▁Arnold	-11.5602
▁Gentlemen	-11.5602
▁Loretta	-11.5602
▁Manhattan	-11.5602
▁Twombley	-11.5602
▁celebrate	-11.5602
▁clerk	-11.5602
▁fabulous	-11.5602
▁identify	-11.5602
▁plague	-11.5602
▁yourselves	-11.5602
▁Alfred	-11.5602
▁Nicole	-11.5602
▁cooperate	-11.5602
▁drank	-11.5602
▁mysterious	-11.5602
▁slaughter	-11.5602
▁election	-11.5602
▁presume	-11.5602
▁timing	-11.5602
▁valley	-11.5602
▁Evelyn	-11.5602
▁oath	-11.5602
▁predict	-11.5602
▁confidential	-11.5603
▁fond	-11.5603
▁Wonderful	-11.5603
▁Joanna	-11.5603
pass	-11.5604
▁rubber	-11.5604
▁apparently	-11.5604
▁Luther	-11.5604
▁fever	-11.5606
▁Stick	-11.5607
lemme	-11.5609
▁fur	-11.5612
▁Drew	-11.5613
most	-11.5614
▁properly	-11.5618
▁nest	-11.562
▁Whenever	-11.5621
▁customer	-11.5634
▁bitter	-11.5636
▁abuse	-11.5637
▁visitor	-11.5657
▁Cuba	-11.5662
▁Fla	-11.567
▁Road	-11.569
▁waitin	-11.5714
▁Cold	-11.5715
▁bon	-11.5729
▁Ross	-11.573
▁guilt	-11.5746
▁assassin	-11.5753
▁interfere	-11.5756
▁Nonsense	-11.5756
▁Soviet	-11.5756
▁envelope	-11.5756
▁modern	-11.5756
▁negotiate	-11.5756
▁servant	-11.5756
▁whistle	-11.5756
▁assault	-11.5756
▁cheek	-11.5756
▁superior	-11.5756
▁sweep	-11.5756
▁dentist	-11.5756
▁permanent	-11.5756
▁Sulu	-11.5756
▁adopt	-11.5756
▁sauce	-11.5757
▁shaking	-11.5757
▁addict	-11.5757
▁sector	-11.5757
▁Found	-11.5758
▁GOT	-11.576
▁wrist	-11.576
▁motion	-11.576
▁Dickson	-11.5761
▁poker	-11.5762
▁Somehow	-11.5762
nut	-11.5765
For	-11.5769
▁alert	-11.5771
▁Erin	-11.5785
▁acted	-11.5789
▁intended	-11.5798
▁tit	-11.5809
wh	-11.581
grad	-11.5813
▁tub	-11.5817
▁introduced	-11.5818
▁mall	-11.582
▁formal	-11.5833
dded	-11.5838
▁studying	-11.584
▁bike	-11.5841
▁11	-11.5862
cop	-11.5865
▁Babe	-11.5885
▁finest	-11.5893
close	-11.5895
Go	-11.5899
agged	-11.5902
▁Rain	-11.5904
▁practical	-11.5905
▁Baltimore	-11.5912
▁Nancy	-11.5912
▁Science	-11.5912
▁Sheldrake	-11.5912
▁Wynant	-11.5912
▁conclusion	-11.5912
▁crisis	-11.5912
▁observe	-11.5912
▁puppet	-11.5912
▁radiation	-11.5912
▁similar	-11.5912
▁technology	-11.5912
▁territory	-11.5912
▁Silver	-11.5913
▁unknown	-11.5913
▁Harris	-11.5913
▁Turk	-11.5913
▁reject	-11.5913
▁circuit	-11.5913
▁Western	-11.5913
▁Creasy	-11.5913
▁Skipper	-11.5913
▁backwards	-11.5914
IE	-11.5916
▁Kong	-11.5916
▁Instead	-11.5916
▁delay	-11.5917
▁Mel	-11.5917
▁airline	-11.5919
▁Step	-11.592
▁Maya	-11.5921
▁Paine	-11.5923
▁scan	-11.5934
▁Kent	-11.5939
▁Join	-11.594
▁Wally	-11.5942
wfully	-11.5945
▁expenses	-11.5959
▁helpful	-11.596
lai	-11.5972
▁Lab	-11.5987
▁core	-11.6017
▁Nell	-11.6024
▁Cab	-11.6046
lance	-11.6047
▁boot	-11.6047
▁Commission	-11.6061
▁gamble	-11.6061
▁hug	-11.6068
▁instant	-11.6071
▁Building	-11.6071
▁Carpenter	-11.6071
▁Gallagher	-11.6071
▁Lebowski	-11.6071
▁alternative	-11.6071
▁architect	-11.6071
▁independent	-11.6071
▁storage	-11.6071
▁unfair	-11.6071
▁victory	-11.6071
▁Gabriel	-11.6071
▁illusion	-11.6071
▁lobby	-11.6071
▁recruit	-11.6071
▁Dinner	-11.6071
▁session	-11.6071
▁Laurie	-11.6071
▁rode	-11.6071
▁Wonder	-11.6072
▁narrow	-11.6072
▁Strange	-11.6072
▁Valley	-11.6072
▁Foley	-11.6072
▁Wilson	-11.6073
▁spray	-11.6073
▁expression	-11.6075
▁HER	-11.6076
▁Merle	-11.6077
▁Blow	-11.6077
▁Sammy	-11.6078
▁logical	-11.6081
fuse	-11.6089
▁cheated	-11.6096
▁Sooner	-11.6098
▁highest	-11.6099
▁Speaking	-11.6101
▁vampire	-11.6109
▁forgetting	-11.6109
▁charged	-11.6113
▁Lie	-11.6114
▁Moon	-11.6117
▁complaining	-11.6122
vision	-11.6125
▁z	-11.6129
rise	-11.6137
▁suite	-11.6144
RY	-11.6157
▁von	-11.6161
▁smarter	-11.6163
lee	-11.6169
▁worthy	-11.6178
▁coin	-11.6181
Neil	-11.6186
gro	-11.6211
▁register	-11.6213
eye	-11.6214
▁havin	-11.6228
▁August	-11.6233
▁Coffee	-11.6233
▁Genesis	-11.6233
▁entrance	-11.6233
▁environment	-11.6233
▁episode	-11.6233
▁executive	-11.6233
▁peanut	-11.6233
▁temporary	-11.6233
▁tragedy	-11.6233
▁Finally	-11.6233
▁budget	-11.6233
▁coffin	-11.6233
▁mortal	-11.6233
▁pigeon	-11.6233
▁agency	-11.6233
▁achieve	-11.6233
▁studied	-11.6233
▁blade	-11.6234
▁spark	-11.6234
▁freezing	-11.6234
▁reference	-11.6234
▁HERE	-11.6235
▁deaf	-11.6236
▁claw	-11.6237
▁swore	-11.6238
▁Space	-11.6238
▁comment	-11.6239
▁publicity	-11.6241
▁marrying	-11.6243
▁robbery	-11.6243
▁Job	-11.6247
▁reverse	-11.6248
▁scam	-11.6254
▁explained	-11.6258
▁cleared	-11.6262
▁convention	-11.6264
▁removed	-11.6276
▁Ball	-11.6281
▁sca	-11.6288
▁shitty	-11.6301
▁safer	-11.631
▁Pig	-11.631
▁Buck	-11.633
▁mill	-11.6334
▁enjoying	-11.6346
▁warp	-11.635
▁India	-11.6359
Let	-11.6365
▁height	-11.6366
▁peaceful	-11.6368
▁MO	-11.6373
▁float	-11.6374
▁wr	-11.6376
▁handled	-11.6381
▁kiddin	-11.6393
▁Phillip	-11.6396
▁Preysing	-11.6396
▁Vanessa	-11.6396
▁bluff	-11.6396
▁cemetery	-11.6396
▁dinosaur	-11.6396
▁hammer	-11.6396
▁necessarily	-11.6396
▁sacred	-11.6396
▁struggle	-11.6396
▁violin	-11.6396
▁werewolf	-11.6396
▁HAVE	-11.6397
▁barrel	-11.6397
▁crank	-11.6397
▁Break	-11.6397
▁yacht	-11.6397
▁hostile	-11.6397
▁maniac	-11.6397
▁breed	-11.6397
▁violation	-11.6399
▁inject	-11.6399
▁chill	-11.64
▁Chance	-11.64
▁Owen	-11.6403
▁highway	-11.6406
▁Kinda	-11.6408
▁apply	-11.6414
▁stare	-11.6414
▁Beach	-11.6415
hhhh	-11.6415
terior	-11.6416
IVE	-11.6416
▁determined	-11.6417
▁sealed	-11.6418
rock	-11.6421
▁reported	-11.6421
▁grass	-11.6422
▁earned	-11.6424
▁Catch	-11.6424
▁Mostly	-11.6427
▁Bree	-11.6432
talk	-11.6437
▁Working	-11.6446
▁Yet	-11.6447
▁armor	-11.6475
zza	-11.6488
▁gum	-11.6522
ought	-11.6527
▁propose	-11.653
▁noon	-11.6546
▁dressing	-11.6548
ification	-11.6556
▁mornin	-11.6559
▁runnin	-11.6559
▁Francis	-11.6562
▁Bernstein	-11.6563
▁Corleone	-11.6563
▁Deborah	-11.6563
▁Friedman	-11.6563
▁Knock	-11.6563
▁Philadelphia	-11.6563
▁Teresa	-11.6563
▁Thompson	-11.6563
▁absurd	-11.6563
▁explosion	-11.6563
▁marvelous	-11.6563
▁principle	-11.6563
▁succeed	-11.6563
▁Scully	-11.6563
▁sheriff	-11.6563
▁casual	-11.6563
▁distinct	-11.6563
▁worries	-11.6563
▁Class	-11.6563
▁content	-11.6563
▁amaze	-11.6563
▁wagon	-11.6563
▁promote	-11.6564
▁Through	-11.6564
▁basically	-11.6564
▁prospect	-11.6565
▁Rowan	-11.6565
▁darn	-11.6565
▁limb	-11.6566
▁sch	-11.6567
▁mommy	-11.6569
▁Wake	-11.657
▁Cobb	-11.657
▁Sixty	-11.6571
▁flame	-11.6572
▁Saw	-11.6582
▁confirmed	-11.6586
▁cheating	-11.6593
iddle	-11.6593
▁developed	-11.6596
▁vice	-11.6599
play	-11.6611
▁seal	-11.6613
▁Main	-11.6623
▁puttin	-11.663
▁mud	-11.6642
▁refused	-11.6645
gun	-11.6649
▁behave	-11.6651
▁drawer	-11.6664
▁tar	-11.6665
▁accepted	-11.667
▁dive	-11.667
▁Heart	-11.6677
▁Carol	-11.6683
▁hunter	-11.6684
▁Sco	-11.6707
▁stall	-11.6707
Fuck	-11.6707
ouch	-11.6721
▁Frida	-11.6723
▁Morgan	-11.6733
▁Vienna	-11.6733
▁capacity	-11.6733
▁corrupt	-11.6733
▁custody	-11.6733
▁flew	-11.6733
▁furniture	-11.6733
▁morgue	-11.6733
▁religion	-11.6733
▁Wallace	-11.6733
▁instrument	-11.6733
▁automatic	-11.6733
▁hunch	-11.6733
▁royal	-11.6733
▁turkey	-11.6733
▁Santos	-11.6733
▁Ruiz	-11.6733
▁Emily	-11.6733
▁plum	-11.6734
▁Edgar	-11.6734
▁Swann	-11.6734
▁unconscious	-11.6734
▁stalk	-11.6735
▁Smart	-11.6735
▁Fox	-11.6735
▁Report	-11.6737
▁boil	-11.674
▁Oak	-11.6741
▁socks	-11.6742
▁Lila	-11.6743
▁Fan	-11.6743
▁stream	-11.6752
▁Rex	-11.6755
▁amuse	-11.6767
cade	-11.6773
mobile	-11.6782
▁continu	-11.679
▁structure	-11.6794
Al	-11.6795
▁catching	-11.6796
▁packing	-11.681
▁site	-11.6812
▁hatch	-11.6812
zing	-11.6823
RT	-11.6834
▁hairy	-11.6845
▁Hon	-11.6847
star	-11.685
▁Care	-11.6851
▁Mean	-11.6858
course	-11.6859
▁laughed	-11.6862
▁discover	-11.6878
Ho	-11.6893
▁givin	-11.6901
▁Clarice	-11.6905
▁Malcolm	-11.6905
▁Mulder	-11.6905
▁Murray	-11.6905
▁Shakespeare	-11.6905
▁atmosphere	-11.6905
▁corporate	-11.6905
▁corpse	-11.6905
▁explode	-11.6905
▁genuine	-11.6905
▁gorgeous	-11.6905
▁telegram	-11.6905
▁investigator	-11.6905
▁reception	-11.6905
▁envy	-11.6905
▁gesture	-11.6905
▁reserve	-11.6905
▁maintain	-11.6905
▁transferred	-11.6905
▁Lauren	-11.6905
▁Seattle	-11.6905
▁destruction	-11.6906
▁indicate	-11.6906
▁proposition	-11.6906
▁shuttle	-11.6906
▁Donald	-11.6907
▁select	-11.6907
▁shave	-11.6908
▁laser	-11.6911
▁rust	-11.6917
▁draft	-11.6918
▁Temp	-11.6924
stick	-11.6924
ional	-11.6928
▁Finish	-11.6931
▁entering	-11.6942
Then	-11.6946
▁Mack	-11.695
▁Op	-11.695
▁Shhhh	-11.6952
▁shocked	-11.6963
city	-11.6973
▁memo	-11.6982
De	-11.699
half	-11.6992
▁latest	-11.7
▁Kip	-11.7001
▁lame	-11.7006
▁fog	-11.7007
▁DA	-11.7016
elli	-11.702
▁rear	-11.7022
▁kicking	-11.7024
▁traveling	-11.7028
▁candle	-11.7028
▁21	-11.7032
▁clu	-11.7045
▁organ	-11.7063
▁Marquis	-11.708
▁Negative	-11.708
▁Saavik	-11.708
▁liquid	-11.708
▁possibilities	-11.708
▁wicked	-11.708
▁Lecter	-11.708
▁chamber	-11.708
▁exhibit	-11.708
▁receipt	-11.708
▁tattoo	-11.708
▁Family	-11.708
▁Consider	-11.708
▁Psych	-11.708
▁Samuel	-11.7081
▁random	-11.7081
▁Merrick	-11.7081
▁division	-11.7081
▁zone	-11.7082
▁towel	-11.7082
▁remark	-11.7082
▁sheep	-11.7082
▁Town	-11.7083
▁Burke	-11.7083
▁slim	-11.7083
▁poster	-11.7084
▁grace	-11.7086
▁MA	-11.7089
▁Alone	-11.7089
▁labor	-11.7091
▁mock	-11.7093
▁penis	-11.7094
count	-11.7099
▁coach	-11.7101
dding	-11.7109
▁DEA	-11.711
▁22	-11.7112
▁Face	-11.7113
▁stir	-11.7115
▁begun	-11.7128
▁Lily	-11.7128
▁journal	-11.7129
▁anytime	-11.714
▁Went	-11.7145
urg	-11.7153
burn	-11.7154
▁Ohio	-11.7167
▁stunt	-11.7173
nnn	-11.7182
▁driven	-11.7196
▁sheet	-11.7202
lect	-11.7202
walk	-11.721
Good	-11.7212
▁wasted	-11.7217
▁visiting	-11.7219
▁caus	-11.7223
▁melt	-11.7224
Ex	-11.723
▁fiance	-11.7235
▁impress	-11.7237
bone	-11.7241
▁temp	-11.7243
▁Shh	-11.7246
▁flatter	-11.7248
▁counsel	-11.7254
▁Bloom	-11.7259
▁College	-11.7259
▁Committee	-11.7259
▁Computer	-11.7259
▁Deputy	-11.7259
▁Dwayne	-11.7259
▁Explain	-11.7259
▁Garrison	-11.7259
▁Halloween	-11.7259
▁Interesting	-11.7259
▁Suzie	-11.7259
▁Yellow	-11.7259
▁colleague	-11.7259
▁electro	-11.7259
▁elephant	-11.7259
▁escort	-11.7259
▁fifth	-11.7259
▁hamburger	-11.7259
▁judgment	-11.7259
▁suspend	-11.7259
▁blackmail	-11.7259
▁mechanic	-11.7259
▁activity	-11.7259
▁Holland	-11.7259
▁pervert	-11.7259
▁thrust	-11.7259
▁Donnie	-11.7259
▁carpet	-11.726
▁combat	-11.726
▁annoy	-11.726
▁impressive	-11.726
▁slightest	-11.726
▁firing	-11.726
▁chapter	-11.7261
▁foul	-11.7262
▁harmless	-11.7263
▁crop	-11.7263
▁Barton	-11.7264
▁ditch	-11.7264
▁counselor	-11.7265
▁Yessir	-11.7267
▁soda	-11.7272
▁Feds	-11.7274
▁ego	-11.7278
▁Wall	-11.7285
▁disturbed	-11.7286
▁boxes	-11.7287
▁plat	-11.7288
▁orbit	-11.7292
▁classes	-11.7301
▁sucked	-11.7303
▁borrowed	-11.7306
▁Deb	-11.7312
▁rum	-11.7312
▁shove	-11.7317
boat	-11.7319
lag	-11.7326
▁parked	-11.7332
▁businessman	-11.7335
▁feeding	-11.7346
▁math	-11.7354
▁survived	-11.7363
▁Mayo	-11.7376
0,000	-11.7399
rink	-11.7407
base	-11.7425
▁terror	-11.7436
▁relation	-11.7441
▁AIDS	-11.7441
▁Afraid	-11.7441
▁Houston	-11.7441
▁Laszlo	-11.7441
▁Melanie	-11.7441
▁Peggy	-11.7441
▁competition	-11.7441
▁incredibly	-11.7441
▁nickel	-11.7441
▁scientific	-11.7441
▁suspicion	-11.7441
▁Spring	-11.7441
▁unique	-11.7441
▁warrior	-11.7441
▁starving	-11.7441
▁Utah	-11.7441
▁Double	-11.7441
▁Weather	-11.7441
▁Batman	-11.7441
▁silent	-11.7441
▁queer	-11.7441
▁Ripper	-11.7442
▁engagement	-11.7442
▁task	-11.7442
▁Panther	-11.7443
▁Ruby	-11.7443
▁scout	-11.7444
▁Rico	-11.7445
▁Place	-11.7445
▁Mass	-11.7448
▁heroin	-11.745
▁unlike	-11.745
▁Milo	-11.7451
▁temper	-11.7454
▁fuss	-11.7456
▁shine	-11.7456
▁Laz	-11.7461
▁restore	-11.7463
▁bait	-11.7463
▁granted	-11.7465
▁Neo	-11.7467
▁handling	-11.7467
▁Hardly	-11.7467
▁rebel	-11.747
ational	-11.7473
▁drawn	-11.748
▁Beg	-11.749
ronic	-11.7501
▁Rio	-11.7504
▁internal	-11.7508
▁MAN	-11.7509
▁singer	-11.7512
ark	-11.7515
ector	-11.7523
▁folk	-11.7529
▁parent	-11.753
▁compos	-11.7532
▁safely	-11.7538
▁Marie	-11.7546
▁Frankly	-11.7546
▁musical	-11.7558
omo	-11.7562
▁shovel	-11.7567
door	-11.7571
rrier	-11.7575
▁Till	-11.7581
Some	-11.7583
▁Jam	-11.7589
▁profession	-11.759
▁retire	-11.759
▁refer	-11.7591
▁Figure	-11.7592
▁tradition	-11.7599
▁Suit	-11.7599
▁electric	-11.7604
▁invent	-11.7606
▁sting	-11.7608
▁alter	-11.761
▁Glen	-11.7618
▁Sign	-11.7619
▁distract	-11.7621
▁Brandon	-11.7626
▁Different	-11.7626
▁Kubelik	-11.7626
▁McCoy	-11.7626
▁Napoleon	-11.7626
▁Objection	-11.7626
▁Stupid	-11.7626
▁anniversary	-11.7626
▁convenient	-11.7626
▁description	-11.7626
▁fascinating	-11.7626
▁smiling	-11.7626
▁temperature	-11.7626
▁ultimate	-11.7626
▁Jacob	-11.7626
▁literally	-11.7626
▁Kyle	-11.7626
▁resent	-11.7626
▁Crime	-11.7626
▁inherit	-11.7626
▁Josie	-11.7626
▁faggot	-11.7626
▁skirt	-11.7626
▁compete	-11.7626
▁clothing	-11.7626
▁convert	-11.7626
▁swi	-11.7627
▁afterwards	-11.7627
▁display	-11.7627
▁cattle	-11.7627
▁fried	-11.7627
▁Carlos	-11.7627
▁cried	-11.7627
▁strap	-11.7628
▁Point	-11.7628
▁dramatic	-11.7628
▁naive	-11.763
operative	-11.7631
▁production	-11.7631
▁Tough	-11.7633
▁patch	-11.7634
▁Buff	-11.7636
▁Honestly	-11.7637
▁Goddamnit	-11.7637
▁raw	-11.7639
▁Juno	-11.7641
▁fag	-11.7646
▁Inside	-11.7653
▁hopeless	-11.7657
▁candy	-11.766
▁Walker	-11.7662
▁hustle	-11.7669
▁barn	-11.7683
gate	-11.7699
▁classic	-11.7711
▁searching	-11.7716
▁hood	-11.7717
▁cooking	-11.7732
▁CO	-11.7732
eh	-11.7741
▁demo	-11.7743
▁visa	-11.7745
▁frighten	-11.7775
because	-11.7776
fight	-11.7777
▁Sell	-11.7779
▁wipe	-11.7781
▁deserved	-11.7787
▁needle	-11.7797
INE	-11.7802
▁bounce	-11.7807
▁livin	-11.7811
▁Skip	-11.7814
▁Information	-11.7815
▁Schwartz	-11.7815
▁WHO	-11.7815
▁nephew	-11.7815
▁Although	-11.7815
▁Council	-11.7815
▁Luthor	-11.7815
▁Maggie	-11.7815
▁Wizard	-11.7815
▁click	-11.7815
▁homosexual	-11.7815
▁injured	-11.7815
▁junior	-11.7815
▁obsessed	-11.7815
▁obsession	-11.7815
▁Pierce	-11.7815
▁Violet	-11.7815
▁creative	-11.7815
▁error	-11.7815
▁DID	-11.7815
▁conspiracy	-11.7815
▁spider	-11.7815
▁Adele	-11.7815
▁Dyle	-11.7815
▁Ouch	-11.7815
▁Cliff	-11.7815
▁Japan	-11.7815
▁restrain	-11.7815
▁encourage	-11.7815
▁disks	-11.7815
▁DAY	-11.7816
▁Kenny	-11.7816
▁Valentine	-11.7817
▁Witch	-11.7817
▁Stacy	-11.7817
▁entertainment	-11.7817
▁effective	-11.7819
▁Fight	-11.7822
▁Franklin	-11.7823
▁Coke	-11.7829
▁torn	-11.783
▁active	-11.783
▁accused	-11.7838
▁floating	-11.7841
▁Marine	-11.7843
▁informed	-11.7844
▁PA	-11.7844
UST	-11.7846
weigh	-11.7853
▁blam	-11.7857
ough	-11.786
▁puke	-11.7862
▁Code	-11.7862
headed	-11.7874
▁Geez	-11.7877
▁bare	-11.788
▁deeper	-11.7885
tock	-11.7896
▁grabbe	-11.7898
▁discussed	-11.7899
▁pier	-11.7908
▁Gal	-11.7909
OK	-11.7927
▁assumed	-11.793
▁Fast	-11.7939
ternal	-11.7946
▁disco	-11.7947
name	-11.7951
▁recognized	-11.7955
ground	-11.7956
found	-11.796
▁tested	-11.7962
000	-11.7993
▁custom	-11.7994
▁twist	-11.7994
Bout	-11.7996
▁Sara	-11.8006
▁Frederick	-11.8007
▁LaPlante	-11.8007
▁Lewis	-11.8007
▁Montana	-11.8007
▁Morpheus	-11.8007
▁Ronnie	-11.8007
▁Yankee	-11.8007
▁contrary	-11.8007
▁explosive	-11.8007
▁extraordinary	-11.8007
▁happily	-11.8007
▁laundry	-11.8007
▁pencil	-11.8007
▁straw	-11.8007
▁torpedo	-11.8007
▁Castle	-11.8007
▁Flynn	-11.8007
▁delicate	-11.8007
▁exploit	-11.8007
▁feature	-11.8007
▁investigate	-11.8007
▁potato	-11.8007
▁seduce	-11.8007
▁distress	-11.8007
▁Mallory	-11.8007
▁consult	-11.8007
▁tiger	-11.8007
▁Canada	-11.8007
▁psychological	-11.8007
▁Jedi	-11.8007
▁tennis	-11.8007
▁Scotch	-11.8008
▁Kurtz	-11.8008
▁Shot	-11.8009
▁balloon	-11.8009
▁Vicki	-11.8009
▁communist	-11.8009
▁Outside	-11.801
▁Dante	-11.801
▁Kurt	-11.801
ira	-11.8012
▁dishes	-11.8014
▁taxes	-11.8016
▁rib	-11.8018
▁spoiled	-11.8035
▁entered	-11.8042
▁suffered	-11.8047
▁chap	-11.8049
▁200	-11.8066
▁dug	-11.807
▁gag	-11.807
▁deer	-11.8077
▁weigh	-11.8079
▁fairy	-11.8091
▁manual	-11.8108
OS	-11.8112
fashioned	-11.8119
▁Trip	-11.8131
▁factor	-11.8133
▁instruct	-11.8146
▁cleaner	-11.8151
mission	-11.8154
▁mug	-11.8157
▁Joel	-11.8159
ipp	-11.8176
▁pose	-11.8178
COM	-11.8185
▁Mob	-11.8198
▁drivin	-11.8199
▁Amazing	-11.8203
▁Cadillac	-11.8203
▁Democrat	-11.8203
▁Dudley	-11.8203
▁Ganz	-11.8203
▁Matthew	-11.8203
▁Pacific	-11.8203
▁Seymour	-11.8203
▁attached	-11.8203
▁beneath	-11.8203
▁helicopter	-11.8203
▁humiliate	-11.8203
▁jazz	-11.8203
▁length	-11.8203
▁surveillance	-11.8203
▁wisdom	-11.8203
▁cocksucker	-11.8203
▁Center	-11.8203
▁Raymond	-11.8203
▁transmit	-11.8203
▁Martha	-11.8203
▁burst	-11.8203
▁riot	-11.8203
▁Coast	-11.8203
▁Dream	-11.8203
▁opposed	-11.8203
▁quest	-11.8203
▁Simple	-11.8204
while	-11.8204
▁admir	-11.8204
▁Crane	-11.8204
▁acid	-11.8204
▁daily	-11.8204
▁misery	-11.8204
▁erase	-11.8205
▁shade	-11.8206
▁Vic	-11.8208
▁Philip	-11.8209
▁Bones	-11.8211
▁Pee	-11.8211
▁Finn	-11.8216
EVER	-11.8218
▁mush	-11.8221
ographic	-11.8222
▁Randy	-11.8227
▁bio	-11.8228
▁daylight	-11.8229
▁junkie	-11.8232
▁SO	-11.8237
etti	-11.824
last	-11.8243
▁Luca	-11.8243
tomic	-11.8255
case	-11.8264
maker	-11.8269
▁meters	-11.829
▁Press	-11.83
▁occasional	-11.83
▁closest	-11.8302
ripping	-11.8305
ured	-11.8306
handed	-11.8312
▁Sub	-11.832
▁smaller	-11.8339
▁NE	-11.8351
Maybe	-11.8356
When	-11.8356
▁closely	-11.8359
▁differently	-11.8366
dead	-11.8374
--"	-11.839
▁violat	-11.84
▁sittin	-11.8403
▁Attorney	-11.8403
▁Bernie	-11.8403
▁Greek	-11.8403
▁Kringelein	-11.8403
▁Krueger	-11.8403
▁McKenna	-11.8403
▁Sebastian	-11.8403
▁Terrific	-11.8403
▁ambulance	-11.8403
▁charity	-11.8403
▁coupla	-11.8403
▁defensive	-11.8403
▁francs	-11.8403
▁increase	-11.8403
▁jurisdiction	-11.8403
▁philosophy	-11.8403
▁razor	-11.8403
▁swamp	-11.8403
▁trauma	-11.8403
▁Klingon	-11.8403
▁micro	-11.8403
▁millionaire	-11.8403
▁undress	-11.8403
▁personnel	-11.8403
▁Epps	-11.8403
AAAA	-11.8403
▁pursue	-11.8403
▁Saint	-11.8403
▁crystal	-11.8403
▁disturbance	-11.8404
▁gym	-11.8404
▁anchor	-11.8405
▁ankle	-11.8405
▁Jody	-11.8405
▁Grandpa	-11.8405
▁urge	-11.8405
▁subway	-11.8406
▁Elect	-11.8406
▁scum	-11.8407
▁scent	-11.8407
▁Leland	-11.8407
▁strictly	-11.8407
stein	-11.8407
▁cunt	-11.8409
▁rocket	-11.841
▁wig	-11.841
▁genetic	-11.8411
▁sew	-11.8411
▁Bela	-11.8412
▁surrounded	-11.8415
▁Korea	-11.8417
▁halfway	-11.8419
▁Tran	-11.842
▁fooled	-11.8421
▁peach	-11.8427
▁July	-11.8428
▁fade	-11.8429
▁trailer	-11.8429
▁Page	-11.843
▁larger	-11.8432
▁Vol	-11.8433
▁Robin	-11.8442
▁tense	-11.8444
nished	-11.845
▁deeply	-11.8451
▁Pope	-11.8477
▁Moss	-11.8478
▁marked	-11.849
▁Rest	-11.8491
▁screwing	-11.8497
▁Toto	-11.8502
▁UN	-11.8514
▁Hah	-11.8521
▁coma	-11.8522
▁damaged	-11.8527
ement	-11.8529
phone	-11.8538
▁sorta	-11.8546
▁journalist	-11.8552
okay	-11.8562
piece	-11.8562
rries	-11.8569
One	-11.8592
▁possess	-11.8592
▁Sire	-11.8602
▁PO	-11.8603
▁Egypt	-11.8607
▁Enjoy	-11.8607
▁Fergus	-11.8607
▁Hawaii	-11.8607
▁League	-11.8607
▁Machine	-11.8607
▁Maranzano	-11.8607
▁Records	-11.8607
▁Reynolds	-11.8607
▁Square	-11.8607
▁ceremony	-11.8607
▁certificate	-11.8607
▁guitar	-11.8607
▁happier	-11.8607
▁leopard	-11.8607
▁specimen	-11.8607
▁thirsty	-11.8607
▁virtue	-11.8607
▁Davis	-11.8607
▁recent	-11.8607
▁fingerprints	-11.8607
▁sensor	-11.8607
▁dragged	-11.8607
▁Whadda	-11.8607
▁utter	-11.8607
▁streak	-11.8607
▁therapist	-11.8607
▁Misery	-11.8607
▁visual	-11.8607
▁Treves	-11.8607
▁debate	-11.8607
▁scumbag	-11.8607
▁Molly	-11.8608
▁vouch	-11.8608
▁unbelievable	-11.8608
▁Secretary	-11.8608
▁branch	-11.861
▁Music	-11.8611
▁THERE	-11.8611
▁Totally	-11.8612
▁Puff	-11.8613
▁Rita	-11.8613
▁Papa	-11.8614
▁Bai	-11.8614
▁tele	-11.8615
▁booze	-11.8619
▁Tripp	-11.8624
▁producer	-11.8625
▁Cash	-11.8632
▁prim	-11.8633
▁madman	-11.8634
ravi	-11.8636
▁published	-11.8636
▁WAS	-11.8649
UM	-11.865
▁Brady	-11.865
▁proposed	-11.865
▁insulted	-11.8654
▁nailed	-11.8668
▁hmm	-11.8679
▁comedy	-11.8682
▁goose	-11.8685
▁sweater	-11.869
▁Gone	-11.8697
▁suspected	-11.8715
▁Less	-11.8717
▁withdraw	-11.8722
coat	-11.8742
▁VI	-11.8747
▁Ohhh	-11.8757
▁sti	-11.8758
Like	-11.877
water	-11.8776
▁psych	-11.8787
Get	-11.8788
▁punish	-11.8795
▁wealth	-11.8806
conscious	-11.8813
▁neuro	-11.8815
▁Century	-11.8816
▁Lecktor	-11.8816
▁Minnesota	-11.8816
▁Vivian	-11.8816
▁WITH	-11.8816
▁aggressive	-11.8816
▁compound	-11.8816
▁curiosity	-11.8816
▁empire	-11.8816
▁evolve	-11.8816
▁exclusive	-11.8816
▁industry	-11.8816
▁previous	-11.8816
▁primitive	-11.8816
▁privacy	-11.8816
▁satisfy	-11.8816
▁Raoul	-11.8816
▁flirt	-11.8816
▁Control	-11.8816
▁amateur	-11.8816
▁Clyde	-11.8816
▁Dolores	-11.8816
▁kingdom	-11.8816
▁Medical	-11.8816
▁slide	-11.8816
▁dedicate	-11.8816
▁modest	-11.8816
▁investigating	-11.8816
▁Kristen	-11.8816
▁Annette	-11.8817
▁tramp	-11.8817
▁wha	-11.8817
▁define	-11.8819
▁precisely	-11.8819
▁Deep	-11.8821
▁Stuff	-11.8821
▁teenager	-11.8822
▁deposition	-11.8825
▁brace	-11.8825
▁preacher	-11.8825
▁raid	-11.8826
▁musician	-11.8826
▁Wish	-11.8828
▁tourist	-11.8829
▁Sport	-11.883
▁Camp	-11.8836
▁Maxie	-11.8843
▁Asian	-11.8851
▁logic	-11.8864
▁500	-11.8866
▁sailing	-11.8868
▁beaten	-11.8868
▁Bobo	-11.8884
elect	-11.8911
▁dancer	-11.8921
▁discussing	-11.8924
smith	-11.8934
▁Cro	-11.8949
▁honored	-11.8956
Jesus	-11.8981
quit	-11.8983
▁capture	-11.8996
▁Brook	-11.9004
▁Office	-11.9021
Artagnan	-11.9028
▁Bourne	-11.9028
▁Kathryn	-11.9028
▁Oklahoma	-11.9028
▁Project	-11.9028
▁Straight	-11.9028
▁Thorwald	-11.9028
▁Usually	-11.9028
▁album	-11.9028
▁anonymous	-11.9028
▁broadcast	-11.9028
▁excitement	-11.9028
▁grief	-11.9028
▁physics	-11.9028
▁politician	-11.9028
▁underneath	-11.9028
▁patrol	-11.9028
▁purchase	-11.9028
▁Marvin	-11.9028
▁Swana	-11.9028
▁Woman	-11.9028
▁dummy	-11.9028
▁preserve	-11.9028
▁Chamber	-11.9028
▁Borg	-11.9028
▁silk	-11.9028
▁limo	-11.9028
▁apology	-11.9028
▁accent	-11.9029
▁Regula	-11.9029
▁scoop	-11.9029
▁Monica	-11.9029
▁region	-11.9029
▁native	-11.9029
▁Express	-11.903
▁lamb	-11.903
▁thread	-11.903
▁Mayfield	-11.903
▁Josephine	-11.9031
▁disappointment	-11.9031
▁countries	-11.9031
▁Westley	-11.9031
▁Hoover	-11.9032
▁Wheeler	-11.9032
▁fold	-11.9032
▁cities	-11.9033
▁operating	-11.9034
▁settlement	-11.9035
▁Luck	-11.9036
▁Bang	-11.904
▁programmed	-11.904
▁Boone	-11.9041
▁comb	-11.9041
▁matches	-11.9046
▁PG	-11.9051
▁physically	-11.9051
▁electrical	-11.9052
▁wandering	-11.9061
▁beans	-11.9062
▁Jay	-11.9063
cru	-11.9064
▁Careful	-11.9065
▁passes	-11.9066
easy	-11.9067
▁normally	-11.9071
▁gray	-11.9074
▁goddamnit	-11.9076
faced	-11.9077
▁behalf	-11.908
▁boost	-11.9094
▁suggested	-11.9099
▁gene	-11.91
▁ONE	-11.9104
▁supervis	-11.9106
▁Prof	-11.9111
▁Base	-11.9151
stead	-11.9171
▁expense	-11.918
▁BO	-11.919
damn	-11.9196
American	-11.9198
twenty	-11.9198
class	-11.9198
track	-11.92
▁FA	-11.9211
▁hump	-11.922
▁constant	-11.9239
▁Negro	-11.9242
▁Addison	-11.9246
▁Chekov	-11.9246
▁Dammit	-11.9246
▁Dylan	-11.9246
▁Pentagon	-11.9246
▁Reggie	-11.9246
▁System	-11.9246
▁Venkman	-11.9246
▁Vernon	-11.9246
▁awkward	-11.9246
▁brutal	-11.9246
▁concentration	-11.9246
▁disguise	-11.9246
▁estimate	-11.9246
▁fortunate	-11.9246
▁gambling	-11.9246
▁identifie	-11.9246
▁identity	-11.9246
▁satisfaction	-11.9246
▁typical	-11.9246
▁voyage	-11.9246
▁Calvin	-11.9246
▁Group	-11.9246
▁Moraes	-11.9246
▁Warrior	-11.9246
▁orphan	-11.9246
▁smear	-11.9246
▁parasite	-11.9246
▁assuming	-11.9246
▁submit	-11.9246
▁puzzle	-11.9246
▁pudding	-11.9246
▁Smell	-11.9246
▁Lilly	-11.9246
▁chopped	-11.9247
▁panties	-11.9247
▁Food	-11.9247
▁coordinates	-11.9247
▁FUCKING	-11.9247
▁deliberately	-11.9247
▁retirement	-11.9248
▁spotted	-11.9248
▁begging	-11.9248
▁childhood	-11.9248
▁Tracy	-11.9248
▁spiritual	-11.9248
▁tribe	-11.9249
▁cabinet	-11.9249
▁Personally	-11.9249
▁Yeh	-11.925
▁Knight	-11.9251
▁bold	-11.9252
▁label	-11.9255
cycl	-11.9256
▁booth	-11.9256
▁Ooh	-11.9257
▁stew	-11.9257
▁sane	-11.9258
▁Sera	-11.9259
▁Tex	-11.9264
▁officially	-11.9266
▁possessed	-11.9266
▁registered	-11.9272
▁Radio	-11.9274
▁Roth	-11.9276
▁Candy	-11.9279
OME	-11.9281
ask	-11.9288
▁pole	-11.9294
▁Mak	-11.93
▁quietly	-11.93
▁shred	-11.9305
▁Carla	-11.9307
▁chin	-11.9327
▁separated	-11.9329
▁suggesting	-11.933
slightly	-11.9346
Told	-11.9368
▁March	-11.9408
▁bark	-11.9453
mean	-11.9458
▁absolute	-11.9461
▁slug	-11.9463
▁alcohol	-11.9466
▁stag	-11.9467
▁Thou	-11.9468
sufficient	-11.9468
▁Academy	-11.9468
▁Channing	-11.9468
▁Communist	-11.9468
▁analysis	-11.9468
▁expedition	-11.9468
▁ignorant	-11.9468
▁invisible	-11.9468
▁legitimate	-11.9468
▁principal	-11.9468
▁proposal	-11.9468
▁romance	-11.9468
▁survivor	-11.9468
▁Ralph	-11.9468
▁depressing	-11.9468
▁expand	-11.9468
▁Magic	-11.9468
▁blend	-11.9468
▁jammed	-11.9468
▁autograph	-11.9468
▁parlor	-11.9468
▁admission	-11.9468
▁Theater	-11.9469
▁Write	-11.9469
▁knot	-11.947
▁haircut	-11.9471
▁riddle	-11.9472
▁SOME	-11.9472
▁Drug	-11.9472
▁illness	-11.9472
▁porno	-11.9473
ONE	-11.9473
▁neutral	-11.9476
▁Weird	-11.9476
▁Pure	-11.9476
▁Pike	-11.9477
▁transit	-11.9479
AKE	-11.948
▁Stew	-11.9487
▁sailor	-11.9488
▁cloak	-11.9488
▁Rocky	-11.9494
▁generally	-11.9495
▁Dance	-11.9498
▁sap	-11.9503
▁Around	-11.9505
▁therefore	-11.9506
OL	-11.9513
▁treaty	-11.9521
▁ALL	-11.9527
▁poisoned	-11.953
▁requested	-11.9532
▁sucking	-11.9533
▁advanced	-11.9533
▁lifted	-11.9537
▁Though	-11.9537
▁fairly	-11.9537
▁chased	-11.9539
▁lawn	-11.9571
▁watches	-11.9571
▁feller	-11.9588
▁dip	-11.9594
afta	-11.96
▁Chin	-11.9601
▁tab	-11.962
▁pinch	-11.962
▁Spec	-11.9633
▁fist	-11.9638
fresh	-11.9648
cuse	-11.9661
courage	-11.967
▁abandon	-11.9676
▁Maria	-11.9685
▁Beckett	-11.9695
▁Excellency	-11.9695
▁Keaton	-11.9695
▁Maurice	-11.9695
▁Memphis	-11.9695
▁Surprise	-11.9695
▁Twice	-11.9695
▁WILL	-11.9695
▁enforcement	-11.9695
▁harbor	-11.9695
▁leather	-11.9695
▁mortgage	-11.9695
▁perfume	-11.9695
▁serving	-11.9695
▁symptoms	-11.9695
▁vulnerable	-11.9695
▁Cowboy	-11.9695
▁KILL	-11.9695
▁burden	-11.9695
▁fraud	-11.9695
▁polish	-11.9695
▁warehouse	-11.9695
▁Canadian	-11.9695
▁November	-11.9695
▁breach	-11.9695
▁status	-11.9695
▁Ladies	-11.9695
▁lawsuit	-11.9695
▁Winston	-11.9695
▁offended	-11.9695
▁mutant	-11.9695
▁briefcase	-11.9695
▁greet	-11.9695
▁roommate	-11.9696
▁merger	-11.9696
▁finance	-11.9696
▁Cathy	-11.9696
▁Shark	-11.9697
▁remarkable	-11.9697
▁epi	-11.9699
▁Chick	-11.9699
▁Rudy	-11.9699
▁commitment	-11.9699
▁Highness	-11.97
▁Round	-11.9701
▁sandwiches	-11.9702
▁Levi	-11.9705
▁insight	-11.9706
▁Near	-11.9706
▁Union	-11.9711
▁Erica	-11.9713
▁flattered	-11.972
▁Christine	-11.972
▁lip	-11.9725
▁drowned	-11.973
type	-11.9734
▁wiped	-11.9737
wash	-11.9739
▁sentimental	-11.9745
▁painted	-11.9761
▁Martini	-11.9772
▁Pain	-11.9779
15	-11.9781
▁planted	-11.9785
▁wad	-11.9791
▁Change	-11.9808
▁Chang	-11.9819
▁bun	-11.983
▁faithful	-11.9841
▁Dodge	-11.9845
▁cord	-11.9862
erial	-11.9865
after	-11.988
Hello	-11.9881
▁Grab	-11.9881
▁embarrass	-11.9885
▁swor	-11.9887
change	-11.9902
▁diploma	-11.9928
▁Adrian	-11.9928
▁CONTINUED	-11.9928
▁Fourteen	-11.9928
▁Frankenstein	-11.9928
▁Gibson	-11.9928
▁HIM	-11.9928
▁Jordan	-11.9928
▁Kendall	-11.9928
▁Pittsburgh	-11.9928
▁Trevor	-11.9928
▁airplane	-11.9928
▁banana	-11.9928
▁bureau	-11.9928
▁colony	-11.9928
▁encounter	-11.9928
▁facility	-11.9928
▁flood	-11.9928
▁gravity	-11.9928
▁persuade	-11.9928
▁Eduard	-11.9928
▁Madison	-11.9928
▁eager	-11.9928
▁Bandit	-11.9928
▁battery	-11.9928
▁Snake	-11.9928
▁harass	-11.9928
▁manifest	-11.9928
▁mutual	-11.9928
▁ransom	-11.9928
▁radar	-11.9928
▁friggin	-11.9928
▁medication	-11.9928
▁carbon	-11.9928
▁Cotton	-11.9928
▁lamp	-11.9928
▁Terrible	-11.9928
▁meteor	-11.9928
▁assistance	-11.9928
▁pearl	-11.9929
▁primary	-11.9929
▁addition	-11.9929
▁sphere	-11.9929
▁Latin	-11.993
▁waking	-11.993
▁theories	-11.993
give	-11.993
▁kidnap	-11.993
▁venture	-11.993
▁porch	-11.993
▁eyeball	-11.9931
▁impact	-11.9932
▁Cecile	-11.9932
▁Mantan	-11.9933
▁Someday	-11.9933
▁breakdown	-11.9934
▁Hook	-11.9934
▁fax	-11.9934
▁Paper	-11.9935
▁conviction	-11.9935
▁Nels	-11.9936
▁intact	-11.9937
22	-11.9941
▁lane	-11.9943
▁Hiya	-11.9945
▁Tina	-11.9945
▁hype	-11.9947
▁partial	-11.9948
▁humanity	-11.995
▁punished	-11.995
▁Connell	-11.9951
▁altered	-11.9952
▁golden	-11.9957
▁smashed	-11.9958
sexual	-11.9961
▁Sick	-11.9963
▁Figured	-11.9971
10	-11.9973
▁Gate	-11.9977
uaid	-11.9989
▁Kris	-12.0009
▁multipl	-12.0018
▁Lion	-12.0051
ggle	-12.0053
▁cruise	-12.0067
▁dial	-12.0089
ulated	-12.0092
▁Wash	-12.0104
view	-12.0115
Please	-12.0118
thank	-12.0119
check	-12.0127
▁favour	-12.0165
▁confident	-12.0165
tivity	-12.0166
▁Darryl	-12.0166
▁Desmond	-12.0166
▁Embassy	-12.0166
▁Furtwngler	-12.0166
▁Harrington	-12.0166
▁Museum	-12.0166
▁Natalie	-12.0166
▁Public	-12.0166
▁STOP	-12.0166
▁centuries	-12.0166
▁coconut	-12.0166
▁delusion	-12.0166
▁disagree	-12.0166
▁district	-12.0166
▁feather	-12.0166
▁hockey	-12.0166
▁intimate	-12.0166
▁lieutenant	-12.0166
▁peculiar	-12.0166
▁practicing	-12.0166
▁sponsor	-12.0166
▁tragic	-12.0166
▁tremendous	-12.0166
▁underestimate	-12.0166
▁unexpected	-12.0166
▁various	-12.0166
▁complication	-12.0166
▁dignity	-12.0166
▁generation	-12.0166
▁hobby	-12.0166
▁niece	-12.0166
▁slack	-12.0166
▁KNOW	-12.0166
▁Sloan	-12.0166
▁reunion	-12.0166
▁Hillyer	-12.0166
▁plead	-12.0166
▁smack	-12.0166
▁vault	-12.0166
▁Hollis	-12.0166
▁gossip	-12.0166
▁Fettes	-12.0166
▁cotton	-12.0166
▁authorities	-12.0166
▁prostitute	-12.0166
▁Bailey	-12.0166
▁Bowl	-12.0167
▁wrapped	-12.0167
▁confront	-12.0167
▁bonus	-12.0167
▁vent	-12.0167
▁lazy	-12.0167
▁abortion	-12.0167
▁chopper	-12.0168
▁SHE	-12.0168
▁cannon	-12.0168
▁ladder	-12.0168
▁bolt	-12.0168
▁grey	-12.0168
▁cult	-12.0169
▁priority	-12.0169
▁Austrian	-12.017
▁Joan	-12.017
▁Powell	-12.0171
▁Gino	-12.0172
▁exhausted	-12.0176
▁Williamson	-12.0178
▁fatal	-12.0182
▁crown	-12.0184
▁Mort	-12.019
aaaa	-12.0191
▁hitch	-12.0202
▁captured	-12.0204
▁assist	-12.0211
▁unable	-12.0212
▁spying	-12.022
▁bitches	-12.0232
▁Terri	-12.0248
▁printed	-12.0261
AND	-12.0269
20	-12.0324
lice	-12.033
▁lib	-12.0356
normal	-12.0362
space	-12.0363
something	-12.0363
lift	-12.0368
write	-12.0371
▁Hun	-12.0377
droid	-12.0383
▁immediate	-12.0403
▁Arizona	-12.041
▁Atlantic	-12.041
▁Bastard	-12.041
▁Blonde	-12.041
▁Creek	-12.041
▁Hampshire	-12.041
▁Impossible	-12.041
▁Intelligence	-12.041
▁LIKE	-12.041
▁Micheal	-12.041
▁Rebecca	-12.041
▁Ronald	-12.041
▁SHUT	-12.041
▁Taransky	-12.041
▁accurate	-12.041
▁activate	-12.041
▁application	-12.041
▁delicious	-12.041
▁disgrace	-12.041
▁headquarters	-12.041
▁magnificent	-12.041
▁malfunction	-12.041
▁ritual	-12.041
▁survival	-12.041
▁undercover	-12.041
▁vicious	-12.041
▁Blade	-12.041
▁Czech	-12.041
▁Fifth	-12.041
▁PMS	-12.041
▁Selina	-12.041
▁candidate	-12.041
▁communicate	-12.041
▁reliable	-12.041
▁Bishop	-12.041
▁Denver	-12.041
▁whatsoever	-12.041
▁Sophie	-12.041
▁Stewart	-12.041
▁dismiss	-12.041
▁particle	-12.041
▁Meanwhile	-12.041
▁wrestle	-12.041
▁History	-12.041
▁initial	-12.041
▁basketball	-12.041
▁Tibet	-12.041
▁infant	-12.041
▁circus	-12.041
▁denied	-12.041
▁importance	-12.041
▁purple	-12.041
▁Norville	-12.0411
▁vague	-12.0411
▁Eleven	-12.0411
▁pillow	-12.0411
▁Meyer	-12.0411
bidden	-12.0412
▁leap	-12.0412
▁fox	-12.0412
▁Planet	-12.0413
▁invention	-12.0413
▁bald	-12.0413
▁Shang	-12.0414
▁bucket	-12.0414
▁Scout	-12.0414
▁GOD	-12.0415
▁Pony	-12.0415
▁diary	-12.0416
▁tolerate	-12.0416
▁invade	-12.0416
▁greedy	-12.0417
▁Scottie	-12.0419
▁Game	-12.042
▁react	-12.042
▁Bright	-12.0421
▁mature	-12.0421
▁infected	-12.0422
▁unfortunately	-12.0422
▁freeway	-12.0422
▁cellar	-12.0423
▁Fact	-12.0424
▁Human	-12.0425
▁Kick	-12.0426
▁Order	-12.0431
▁Sau	-12.0438
▁examined	-12.0443
never	-12.0448
▁Teach	-12.0457
▁photographer	-12.0467
▁touches	-12.0479
▁Gru	-12.0491
55	-12.0529
gua	-12.0547
▁commander	-12.055
▁slight	-12.0552
▁Rule	-12.0576
believe	-12.0612
▁examine	-12.0625
Take	-12.0626
▁crate	-12.0629
matter	-12.0648
▁Somethin	-12.0656
▁porn	-12.0657
IGHT	-12.0659
▁Chairman	-12.066
▁Eagle	-12.066
▁Eugene	-12.066
▁Holiday	-12.066
▁Koessler	-12.066
▁MacFarlane	-12.066
▁Murphy	-12.066
▁Patchett	-12.066
▁Wigand	-12.066
▁believing	-12.066
▁companies	-12.066
▁corridor	-12.066
▁divide	-12.066
▁fantasies	-12.066
▁luggage	-12.066
▁physician	-12.066
▁psychiatric	-12.066
▁relief	-12.066
▁ribbon	-12.066
▁thorough	-12.066
▁vegetable	-12.066
▁Brazil	-12.066
▁Sweetheart	-12.066
▁pupil	-12.066
▁absence	-12.066
▁minimum	-12.066
▁Connie	-12.066
▁Field	-12.066
▁lipstick	-12.066
▁Least	-12.066
▁psychologist	-12.066
▁amusing	-12.066
▁flop	-12.066
▁slam	-12.066
▁steer	-12.066
▁Helms	-12.066
▁scalp	-12.066
▁subtle	-12.066
▁keen	-12.066
▁chaos	-12.066
▁bracelet	-12.066
▁Brenner	-12.066
▁nuthin	-12.0661
▁studies	-12.0661
▁worn	-12.0661
▁Learn	-12.0661
▁Safe	-12.0661
▁loaf	-12.0661
▁fiend	-12.0662
▁reduce	-12.0662
▁OFF	-12.0663
▁Orange	-12.0663
▁paperwork	-12.0663
▁mouse	-12.0664
▁flush	-12.0664
▁wax	-12.0664
▁Grow	-12.0666
▁jaw	-12.0666
▁liable	-12.0666
▁tide	-12.0667
▁Golden	-12.0668
▁wow	-12.0668
▁psychotic	-12.0669
▁Amber	-12.0671
12	-12.0672
▁Buffy	-12.0673
▁stable	-12.0674
Chi	-12.0676
▁respectable	-12.0677
▁slit	-12.0679
▁bla	-12.0682
▁Willow	-12.0683
aya	-12.0689
▁Lamar	-12.0694
▁consideration	-12.0695
▁Early	-12.0702
▁tender	-12.0707
▁yah	-12.0709
▁pry	-12.0761
▁Woo	-12.0813
ference	-12.0824
step	-12.0831
luc	-12.0851
President	-12.0869
blood	-12.0869
married	-12.0869
which	-12.0869
anything	-12.0869
watch	-12.0872
▁prime	-12.0886
▁attract	-12.0891
▁disgust	-12.0894
▁Lama	-12.0897
▁fin	-12.091
▁chum	-12.0912
▁Spencer	-12.0916
▁Annabelle	-12.0916
▁Australia	-12.0916
▁Between	-12.0916
▁Hundred	-12.0916
▁Kentucky	-12.0916
▁Positive	-12.0916
▁activities	-12.0916
▁batteries	-12.0916
▁cockroach	-12.0916
▁conflict	-12.0916
▁immortal	-12.0916
▁morphine	-12.0916
▁negotiation	-12.0916
▁puppy	-12.0916
▁roast	-12.0916
▁Ernie	-12.0916
▁Oliver	-12.0916
▁Picard	-12.0916
▁alibi	-12.0916
▁sketch	-12.0916
▁sniff	-12.0916
▁ounce	-12.0916
▁frog	-12.0916
▁scandal	-12.0916
▁cherry	-12.0916
▁choir	-12.0916
▁Rothstein	-12.0916
▁Palmer	-12.0916
uarter	-12.0916
▁stool	-12.0916
▁mankind	-12.0916
▁retain	-12.0916
▁Oooh	-12.0917
▁terminal	-12.0917
▁Beast	-12.0917
▁NIGHT	-12.0917
▁Ginger	-12.0917
▁eternal	-12.0917
▁Republican	-12.0917
▁choke	-12.0917
▁Domini	-12.0917
▁inspiration	-12.0917
▁punishment	-12.0918
avitz	-12.0919
would	-12.0919
▁Logan	-12.0919
▁skinny	-12.0919
▁broom	-12.092
▁classified	-12.0921
▁Baker	-12.0921
▁Nix	-12.0921
▁assassination	-12.0922
▁chess	-12.0923
▁vibe	-12.0923
▁reactor	-12.0923
▁Conway	-12.0924
▁THEY	-12.0925
▁Lombardo	-12.0926
▁Cook	-12.0927
▁Snow	-12.093
▁Ivy	-12.093
▁Benny	-12.0931
▁dash	-12.0931
▁Commissioner	-12.0934
▁realistic	-12.0936
▁frightening	-12.0947
▁whacked	-12.0949
▁Orson	-12.0954
21	-12.0971
▁weep	-12.0978
▁tuck	-12.0983
EAR	-12.1118
zzle	-12.1119
▁Cute	-12.112
Come	-12.1138
Say	-12.1154
▁Anti	-12.1164
▁stud	-12.1168
stitute	-12.1173
front	-12.1177
▁preach	-12.1179
▁import	-12.1179
responsibilities	-12.1179
▁Bertrand	-12.1179
▁Buckaroo	-12.1179
▁Fantastic	-12.1179
▁Jacques	-12.1179
▁Manchester	-12.1179
▁Mookie	-12.1179
▁Nineteen	-12.1179
▁Plenty	-12.1179
▁Romulan	-12.1179
▁Squad	-12.1179
▁Towler	-12.1179
▁appetite	-12.1179
▁chemistry	-12.1179
▁discipline	-12.1179
▁elbow	-12.1179
▁fulfill	-12.1179
▁integrity	-12.1179
▁penguin	-12.1179
▁relieved	-12.1179
▁sabotage	-12.1179
▁spaghetti	-12.1179
▁stewardess	-12.1179
▁traitor	-12.1179
▁welfare	-12.1179
▁Scotland	-12.1179
▁gratitude	-12.1179
▁interpret	-12.1179
▁overwhelm	-12.1179
▁Goddammit	-12.1179
▁Mafia	-12.1179
▁Worse	-12.1179
▁ambition	-12.1179
▁slob	-12.1179
▁Cindy	-12.1179
▁delighted	-12.1179
▁craft	-12.1179
▁dammit	-12.1179
▁Basically	-12.1179
▁drain	-12.1179
▁Becker	-12.1179
▁Elena	-12.1179
▁Maude	-12.1179
▁hardware	-12.1179
▁elected	-12.1179
▁rising	-12.1179
▁Mountain	-12.118
MENT	-12.118
▁Farmer	-12.118
▁Oui	-12.118
▁electronic	-12.118
▁kidnapping	-12.118
▁toxic	-12.118
▁Enzo	-12.118
▁Otto	-12.118
▁dragging	-12.118
▁Hector	-12.118
▁carrier	-12.1181
▁Argon	-12.1181
▁Vader	-12.1181
▁rational	-12.1181
throp	-12.1181
Rosebud	-12.1181
▁swine	-12.1182
▁admitted	-12.1182
▁lend	-12.1182
▁Lowell	-12.1183
▁Penny	-12.1183
brok	-12.1183
OLD	-12.1184
▁probation	-12.1185
▁Creed	-12.1185
▁Laval	-12.1185
▁Artie	-12.1186
▁percentage	-12.1187
▁qualified	-12.1187
▁constantly	-12.1188
▁accountant	-12.119
▁Against	-12.119
▁flaw	-12.1191
▁slot	-12.1192
▁discovery	-12.1195
▁Marion	-12.1199
▁adore	-12.1201
:00	-12.1203
▁Remo	-12.1204
▁heroes	-12.121
▁zip	-12.1212
▁Oil	-12.1234
▁ammo	-12.1268
500	-12.1277
▁painful	-12.1299
▁Emma	-12.1341
Man	-12.1356
▁prepar	-12.1362
guard	-12.1401
Listen	-12.1402
▁crow	-12.1403
▁determine	-12.1415
drop	-12.143
▁Alabama	-12.145
▁Chimera	-12.145
▁Conklin	-12.145
▁Dawson	-12.145
▁Defense	-12.145
▁Dwight	-12.145
▁Grunemann	-12.145
▁Harvey	-12.145
▁Including	-12.145
▁Vaughan	-12.145
▁autopsy	-12.145
▁bruise	-12.145
▁celebration	-12.145
▁collapse	-12.145
▁companion	-12.145
▁compassion	-12.145
▁confusing	-12.145
▁devote	-12.145
▁fabric	-12.145
▁fossil	-12.145
▁grenade	-12.145
▁implant	-12.145
▁martini	-12.145
▁obliged	-12.145
▁resume	-12.145
▁savage	-12.145
▁sleaz	-12.145
▁subpoena	-12.145
▁unpleasant	-12.145
▁wheelchair	-12.145
▁Castro	-12.145
▁Dragon	-12.145
▁Ocean	-12.145
▁stabbed	-12.145
▁Blake	-12.145
▁conceal	-12.145
▁disrespect	-12.145
▁curtain	-12.145
▁Eastern	-12.145
▁Children	-12.145
▁Push	-12.145
▁Garden	-12.145
▁cuz	-12.145
hantom	-12.145
▁Cedar	-12.145
▁Worth	-12.145
▁holler	-12.145
▁pension	-12.145
▁referring	-12.145
▁Cameron	-12.145
▁Dollar	-12.1451
▁Behind	-12.1451
▁Bunny	-12.1451
▁Series	-12.1452
OUS	-12.1452
▁limp	-12.1453
▁petty	-12.1455
▁payroll	-12.1455
▁pond	-12.1455
▁European	-12.1457
▁footage	-12.1458
▁Colon	-12.1462
▁Merry	-12.1467
▁Fear	-12.1468
▁Kaye	-12.147
▁horny	-12.147
▁OH	-12.1476
▁Woody	-12.1483
▁shithead	-12.1484
▁jar	-12.1485
▁origin	-12.1559
diff	-12.1566
▁Late	-12.1581
human	-12.1592
▁Corn	-12.16
stitution	-12.1656
Boy	-12.168
school	-12.168
Day	-12.1691
▁accuse	-12.1693
▁confuse	-12.1695
▁burglar	-12.1717
▁dyin	-12.1724
▁administrat	-12.1727
▁correspond	-12.1727
▁Audrey	-12.1727
▁BACK	-12.1727
▁Crystal	-12.1727
▁Daphne	-12.1727
▁Galvin	-12.1727
▁Gekko	-12.1727
▁Haldeman	-12.1727
▁Madeleine	-12.1727
▁Margaret	-12.1727
▁Mueller	-12.1727
▁Phoenix	-12.1727
▁Whaddya	-12.1727
▁ceiling	-12.1727
▁confusion	-12.1727
▁decency	-12.1727
▁despise	-12.1727
▁dizzy	-12.1727
▁dynamite	-12.1727
▁equipped	-12.1727
▁heartbeat	-12.1727
▁hysterical	-12.1727
▁interrogation	-12.1727
▁knives	-12.1727
▁manufacture	-12.1727
▁misunderstood	-12.1727
▁occupation	-12.1727
▁perspective	-12.1727
▁picnic	-12.1727
▁saloon	-12.1727
▁superhero	-12.1727
▁adorable	-12.1727
▁obligation	-12.1727
▁rehab	-12.1727
▁harsh	-12.1727
▁condom	-12.1727
▁Watergate	-12.1728
▁psychology	-12.1728
▁operator	-12.1728
▁Strong	-12.1728
▁organism	-12.1728
▁jeep	-12.1728
▁snuff	-12.1728
▁spear	-12.1729
▁massive	-12.173
▁lyin	-12.173
▁Protect	-12.173
▁aisle	-12.173
▁LET	-12.1731
▁echo	-12.1731
▁defendant	-12.1731
▁dining	-12.1731
▁shack	-12.1732
▁tech	-12.1734
▁diner	-12.1736
▁relay	-12.1736
▁judgement	-12.1737
▁Marx	-12.1737
▁Eddy	-12.174
▁Allison	-12.174
▁Key	-12.174
▁Jade	-12.1741
▁CAR	-12.1741
▁household	-12.1742
▁rarely	-12.1752
▁cum	-12.1759
▁quitting	-12.1759
▁Hair	-12.1761
mart	-12.1761
drive	-12.1762
▁Line	-12.1783
▁disconnect	-12.1789
▁bunk	-12.1791
bill	-12.1804
IND	-12.1855
▁rever	-12.1879
▁Bren	-12.1894
bear	-12.1907
master	-12.1927
uestion	-12.1949
Bye	-12.1966
hearted	-12.1973
woman	-12.1974
▁Living	-12.1978
listen	-12.198
box	-12.1983
▁prince	-12.1998
hour	-12.2
help	-12.2008
▁construct	-12.2011
MMMM	-12.2013
▁Atlanta	-12.2013
▁Beethoven	-12.2013
▁Civil	-12.2013
▁Einstein	-12.2013
▁Folks	-12.2013
▁Keith	-12.2013
▁LOVE	-12.2013
▁Ministry	-12.2013
▁Penelope	-12.2013
▁Schuyler	-12.2013
▁Upstairs	-12.2013
▁Vinci	-12.2013
▁allergic	-12.2013
▁caviar	-12.2013
▁discharge	-12.2013
▁drapes	-12.2013
▁popcorn	-12.2013
▁quarrel	-12.2013
▁radiator	-12.2013
▁rehearsal	-12.2013
▁strangle	-12.2013
▁struggling	-12.2013
▁vacuum	-12.2013
▁volume	-12.2013
▁Bateman	-12.2013
▁Costello	-12.2013
▁Remind	-12.2013
▁cliff	-12.2013
▁evacuat	-12.2013
▁regulation	-12.2013
▁Bravo	-12.2013
▁orchestra	-12.2013
▁Problem	-12.2013
▁Reilly	-12.2013
▁depth	-12.2013
▁Travis	-12.2013
▁patron	-12.2013
▁sip	-12.2013
▁Oscar	-12.2013
▁grift	-12.2013
▁thigh	-12.2014
▁sunset	-12.2014
▁burger	-12.2014
▁Monkey	-12.2014
▁Chinatown	-12.2014
▁tact	-12.2014
▁Crash	-12.2014
▁hull	-12.2015
▁fiction	-12.2015
▁Running	-12.2015
▁Lynn	-12.2015
▁humble	-12.2015
▁groom	-12.2015
▁cafe	-12.2015
▁Barney	-12.2015
▁intense	-12.2016
▁organic	-12.2017
▁spice	-12.2017
▁cough	-12.2018
▁Auto	-12.2018
▁Prison	-12.2018
▁Negroes	-12.2019
▁parade	-12.2019
▁Pray	-12.2021
▁Horn	-12.2022
▁Regan	-12.2023
▁burglary	-12.2023
▁Fix	-12.2024
▁wealthy	-12.2027
▁conductor	-12.2027
▁Julian	-12.2031
▁Gang	-12.2032
▁deepest	-12.2032
▁vest	-12.2033
▁sickness	-12.204
▁cub	-12.2044
▁Mick	-12.2044
▁sewer	-12.2062
00,000	-12.2149
▁Chase	-12.2165
ATE	-12.2216
bridge	-12.226
child	-12.2261
Dear	-12.227
▁probe	-12.2271
▁spec	-12.2273
▁forbid	-12.2306
▁basket	-12.2307
▁Already	-12.2307
▁Ambrose	-12.2307
▁Berkeley	-12.2307
▁Bonaparte	-12.2307
▁Complete	-12.2307
▁December	-12.2307
▁District	-12.2307
▁Elijah	-12.2307
▁Nervous	-12.2307
▁September	-12.2307
▁Supreme	-12.2307
▁Treadstone	-12.2307
▁Understood	-12.2307
▁WANT	-12.2307
▁WHERE	-12.2307
▁anxiety	-12.2307
▁arguing	-12.2307
▁concrete	-12.2307
▁dispatch	-12.2307
▁disposal	-12.2307
▁enlighten	-12.2307
▁ethics	-12.2307
▁executed	-12.2307
▁grocery	-12.2307
▁guinea	-12.2307
▁maneuver	-12.2307
▁nostril	-12.2307
▁observation	-12.2307
▁precaution	-12.2307
▁scotch	-12.2307
▁strategy	-12.2307
▁stumble	-12.2307
▁tissue	-12.2307
▁unnecessary	-12.2307
▁Claus	-12.2307
▁Palace	-12.2307
▁beloved	-12.2307
▁helmet	-12.2307
▁Morris	-12.2307
▁cease	-12.2307
▁Sheldon	-12.2307
▁Mollie	-12.2307
▁Sandra	-12.2307
▁Gotham	-12.2307
▁Canyon	-12.2307
▁forehead	-12.2307
▁distant	-12.2308
▁Uhura	-12.2308
▁Moore	-12.2308
▁intellectual	-12.2308
▁snoop	-12.2308
▁Massey	-12.2308
▁swap	-12.2308
uince	-12.2308
▁Betsy	-12.2308
▁Guild	-12.2308
▁stroll	-12.2308
▁Suspect	-12.2309
▁Jonah	-12.2309
▁facing	-12.2309
▁Mustang	-12.2309
▁electricity	-12.2309
▁infection	-12.2309
Jefferson	-12.2309
▁entry	-12.231
▁cramp	-12.231
▁Anywhere	-12.2311
▁affection	-12.2313
▁drew	-12.2316
▁loot	-12.2317
▁Jump	-12.2317
▁dragon	-12.2317
▁Marshal	-12.2318
▁Bitch	-12.2322
▁Toddy	-12.2322
▁Lime	-12.2324
▁rail	-12.2327
▁Lane	-12.2334
▁User	-12.2357
▁pub	-12.2424
▁misunderstand	-12.2488
▁dictat	-12.2522
Thank	-12.2563
Every	-12.2563
Because	-12.2565
before	-12.2565
Sure	-12.2572
job	-12.258
vice	-12.2593
▁frank	-12.2603
▁definite	-12.2603
▁pilgrim	-12.261
▁Bianca	-12.261
▁Brilliant	-12.261
▁Cleveland	-12.261
▁Cuervo	-12.261
▁Dixie	-12.261
▁Insurance	-12.261
▁Journal	-12.261
▁Lynette	-12.261
▁Maureen	-12.261
▁Mississippi	-12.261
▁Spirit	-12.261
▁Stanwyk	-12.261
▁Terrance	-12.261
▁Wilhelm	-12.261
▁acknowledge	-12.261
▁balcony	-12.261
▁chrissake	-12.261
▁condemn	-12.261
▁examination	-12.261
▁figger	-12.261
▁ignorance	-12.261
▁majesty	-12.261
▁nanobot	-12.261
▁perimeter	-12.261
▁splendid	-12.261
▁understudy	-12.261
▁yield	-12.261
▁Kastle	-12.261
▁penetrate	-12.261
▁slick	-12.261
▁throne	-12.261
▁Chancellor	-12.261
▁Edmund	-12.261
▁snatch	-12.261
▁strand	-12.261
▁sensation	-12.261
▁Damone	-12.261
▁flea	-12.261
▁pawn	-12.261
▁retreat	-12.261
Amour	-12.261
▁reform	-12.261
▁Creator	-12.261
▁cartoon	-12.2611
▁literature	-12.2611
▁bundle	-12.2611
WAY	-12.2611
▁crumb	-12.2611
▁Tuttle	-12.2611
▁Gregory	-12.2611
▁Shoe	-12.2611
▁Whew	-12.2611
▁scrub	-12.2612
▁refrigerator	-12.2612
▁Magua	-12.2612
▁Clayton	-12.2613
▁navi	-12.2613
▁slash	-12.2614
▁Mask	-12.2614
▁grid	-12.2616
▁glow	-12.2618
▁Gabe	-12.2618
▁expectations	-12.2618
▁distraction	-12.2618
▁lightning	-12.2621
▁wooden	-12.2622
▁Wick	-12.2622
▁Signor	-12.2624
▁griev	-12.2624
▁representation	-12.2624
▁fame	-12.2625
▁ballet	-12.2627
▁Loan	-12.2627
▁gambler	-12.263
▁Whale	-12.2631
▁Prepar	-12.2633
▁Million	-12.2638
▁Silen	-12.2644
▁objection	-12.2648
▁traditional	-12.2655
quin	-12.2667
▁inspire	-12.27
▁intent	-12.2758
Boo	-12.2853
▁Nolan	-12.2864
special	-12.2875
little	-12.2883
bound	-12.2884
▁surround	-12.2903
▁dimension	-12.2904
▁circ	-12.2905
▁filth	-12.2913
▁greed	-12.2914
▁leavin	-12.2919
▁Citizen	-12.2923
▁Emergency	-12.2923
▁Ghost	-12.2923
▁Gloria	-12.2923
▁Happen	-12.2923
▁KISS	-12.2923
▁Kirsty	-12.2923
▁LOOK	-12.2923
▁Liberty	-12.2923
▁Loomis	-12.2923
▁Possibly	-12.2923
▁Rhode	-12.2923
▁Schulz	-12.2923
▁Wichita	-12.2923
▁acquaintance	-12.2923
▁arrogant	-12.2923
▁breeze	-12.2923
▁caliber	-12.2923
▁cooperation	-12.2923
▁counterfeit	-12.2923
▁crummy	-12.2923
▁fascinate	-12.2923
▁liberty	-12.2923
▁mainframe	-12.2923
▁matrix	-12.2923
▁nowadays	-12.2923
▁scenario	-12.2923
▁sophisticated	-12.2923
▁trousers	-12.2923
▁January	-12.2923
▁bubble	-12.2923
▁dessert	-12.2923
▁insect	-12.2923
▁invasion	-12.2923
▁Jeremy	-12.2923
▁Lestat	-12.2923
▁Worf	-12.2923
▁scope	-12.2923
▁Anglo	-12.2923
▁exceed	-12.2923
▁awesome	-12.2923
▁Collins	-12.2923
▁analyz	-12.2923
▁Swiss	-12.2923
▁Derek	-12.2923
▁Extra	-12.2923
▁gently	-12.2923
▁Gruber	-12.2924
▁Magn	-12.2924
▁central	-12.2924
▁Turkey	-12.2924
▁bunny	-12.2924
▁Brody	-12.2925
▁duties	-12.2925
▁Hurt	-12.2925
▁Section	-12.2925
▁informant	-12.2925
▁uptight	-12.2926
▁paycheck	-12.2926
▁Margie	-12.2926
▁Fink	-12.2926
▁Cops	-12.2926
▁disappearance	-12.2927
▁Lamb	-12.2927
▁pork	-12.2927
▁tension	-12.2928
▁Paso	-12.2929
▁cuff	-12.293
▁Smokey	-12.2931
▁Brun	-12.2932
▁controlled	-12.2933
▁Born	-12.2943
▁papa	-12.2945
agging	-12.3002
▁Aaa	-12.3105
color	-12.3136
could	-12.3198
Com	-12.3202
Will	-12.3205
free	-12.3205
ddling	-12.3238
▁drama	-12.3241
▁Total	-12.3245
Eleanor	-12.3245
▁Barnett	-12.3245
▁Connecticut	-12.3245
▁Darrell	-12.3245
▁Georgia	-12.3245
▁HARRY	-12.3245
▁Incredible	-12.3245
▁Kraut	-12.3245
▁Lechter	-12.3245
▁MONEY	-12.3245
▁Neighbor	-12.3245
▁October	-12.3245
▁PEOPLE	-12.3245
▁Principal	-12.3245
▁Stephanie	-12.3245
▁Trouble	-12.3245
▁Vancouver	-12.3245
▁celebrity	-12.3245
▁cynical	-12.3245
▁disrupt	-12.3245
▁divine	-12.3245
▁fingernails	-12.3245
▁frequency	-12.3245
▁glorious	-12.3245
▁injury	-12.3245
▁jockey	-12.3245
▁naughty	-12.3245
▁paranoia	-12.3245
▁portrait	-12.3245
▁psychopath	-12.3245
▁rendezvous	-12.3245
▁spacecraft	-12.3245
▁supernatural	-12.3245
▁variable	-12.3245
▁virtual	-12.3245
Enquirer	-12.3245
▁contradict	-12.3245
▁dreadful	-12.3245
▁monument	-12.3245
▁Eighteen	-12.3245
▁filter	-12.3245
▁coroner	-12.3245
▁farewell	-12.3245
▁panicked	-12.3245
▁Bundy	-12.3245
▁Sarge	-12.3245
▁domestic	-12.3245
OTHER	-12.3245
▁Curtis	-12.3245
▁extinct	-12.3245
▁implying	-12.3245
▁Unbelievable	-12.3245
▁Aaron	-12.3246
▁Domino	-12.3246
▁terminate	-12.3246
▁lease	-12.3246
IST	-12.3246
▁Potter	-12.3246
▁install	-12.3246
▁Anderson	-12.3246
▁clam	-12.3246
▁slop	-12.3246
▁begged	-12.3246
▁translate	-12.3247
▁Store	-12.3247
▁expertise	-12.3247
▁Lotte	-12.3247
uzu	-12.3247
▁skipped	-12.3247
▁acres	-12.3248
▁Finch	-12.3248
▁alcoholic	-12.3248
▁Sunny	-12.3249
▁Everywhere	-12.3249
▁courtroom	-12.3249
▁Monster	-12.325
▁Huey	-12.325
▁attraction	-12.3251
olecular	-12.3251
▁Enid	-12.3251
▁Institute	-12.3251
▁tray	-12.3252
▁puff	-12.3252
▁Jury	-12.3253
▁pageant	-12.3253
▁temple	-12.3253
▁Wesley	-12.3254
▁Load	-12.3255
▁sang	-12.3256
▁loop	-12.3257
▁Carson	-12.3258
▁bounc	-12.3258
▁hoop	-12.3258
▁Marla	-12.3263
▁rack	-12.3263
▁Tax	-12.3264
▁endure	-12.3277
western	-12.331
▁Broke	-12.3315
▁nag	-12.3338
▁Cult	-12.3346
▁mugg	-12.3372
Christ	-12.3531
world	-12.3531
shirt	-12.3532
minute	-12.3533
guy	-12.3533
gotta	-12.3537
Kay	-12.3537
▁engage	-12.3543
▁Direct	-12.3562
▁strict	-12.3572
▁movin	-12.3574
▁Bartholomew	-12.3579
▁Beavis	-12.3579
▁Cosgrove	-12.3579
▁Executive	-12.3579
▁Hamilton	-12.3579
▁Jazz	-12.3579
▁Meeks	-12.3579
▁Nicholas	-12.3579
▁Paradise	-12.3579
▁Precisely	-12.3579
▁Technical	-12.3579
▁accompany	-12.3579
▁bartender	-12.3579
▁bizarre	-12.3579
▁bounty	-12.3579
▁compensate	-12.3579
▁deceased	-12.3579
▁definition	-12.3579
▁evolution	-12.3579
▁guidance	-12.3579
▁hairdresser	-12.3579
▁narcotics	-12.3579
▁nickname	-12.3579
▁offensive	-12.3579
▁prank	-12.3579
▁pregnancy	-12.3579
▁proposing	-12.3579
▁shatter	-12.3579
▁sympathy	-12.3579
▁tobacco	-12.3579
▁unicorn	-12.3579
▁whisky	-12.3579
▁Accident	-12.3579
▁Destroy	-12.3579
▁Melvin	-12.3579
▁Swedish	-12.3579
▁cellular	-12.3579
▁execution	-12.3579
▁lonesome	-12.3579
▁pulse	-12.3579
▁reckless	-12.3579
▁Alaska	-12.3579
▁Split	-12.3579
▁barrack	-12.3579
▁deceive	-12.3579
▁discreet	-12.3579
▁Castor	-12.3579
▁errand	-12.3579
▁grease	-12.3579
▁unstable	-12.3579
▁conquer	-12.3579
▁altogether	-12.3579
▁Gerald	-12.3579
▁courtesy	-12.3579
▁Married	-12.3579
▁consent	-12.3579
▁vomit	-12.3579
▁Thousand	-12.3579
▁sharing	-12.3579
▁stubborn	-12.3579
▁extend	-12.3579
▁Gaston	-12.3579
▁Keyser	-12.3579
▁Sherman	-12.3579
▁Mimi	-12.3579
▁protest	-12.3579
▁peasant	-12.3579
▁Constitution	-12.358
▁bugging	-12.358
▁underwater	-12.3582
▁mainland	-12.3583
▁Rough	-12.3583
▁torment	-12.3583
▁Hicks	-12.3583
▁hiring	-12.3583
▁stitch	-12.3587
▁preparation	-12.3587
▁Hush	-12.3589
▁Raise	-12.3589
▁rattle	-12.3589
▁Lead	-12.3592
▁unlock	-12.3592
▁poke	-12.3594
▁Swede	-12.3595
▁generate	-12.3599
▁chump	-12.3601
▁stun	-12.3709
▁etc	-12.3766
▁Daryl	-12.3824
certain	-12.3876
Frank	-12.3876
fitted	-12.3878
▁essential	-12.3923
▁Campbell	-12.3923
▁Cornelius	-12.3923
▁Fazeli	-12.3923
▁Goebbels	-12.3923
▁Horizon	-12.3923
▁Imperial	-12.3923
▁Jerome	-12.3923
▁Shirley	-12.3923
▁Sixteen	-12.3923
▁Sullivan	-12.3923
▁Together	-12.3923
▁accusing	-12.3923
▁appreciation	-12.3923
▁colonel	-12.3923
▁comrade	-12.3923
▁contribution	-12.3923
▁convincing	-12.3923
▁economic	-12.3923
▁equation	-12.3923
▁exaggerate	-12.3923
▁glimpse	-12.3923
▁gracious	-12.3923
▁graduation	-12.3923
▁hazard	-12.3923
▁horizon	-12.3923
▁imbecile	-12.3923
▁laboratory	-12.3923
▁lesbian	-12.3923
▁qualities	-12.3923
▁reinforce	-12.3923
▁residence	-12.3923
▁rhyme	-12.3923
▁terrified	-12.3923
▁triumph	-12.3923
▁typewriter	-12.3923
▁caution	-12.3923
▁digital	-12.3923
▁mattress	-12.3923
▁Lyssa	-12.3923
▁Repeat	-12.3923
▁Wife	-12.3923
▁delightful	-12.3923
▁drool	-12.3923
▁evaluat	-12.3923
▁lingerie	-12.3923
▁trooper	-12.3923
▁CBS	-12.3923
▁Erik	-12.3923
▁HIS	-12.3923
▁Duchess	-12.3924
▁Fleet	-12.3924
▁Valiant	-12.3924
▁Delmar	-12.3924
▁Kitty	-12.3924
▁bookstore	-12.3924
▁Alpha	-12.3924
▁Heavy	-12.3924
▁smuggle	-12.3924
▁shining	-12.3924
▁narc	-12.3924
▁vanished	-12.3924
▁neural	-12.3924
▁tempted	-12.3924
▁Ilsa	-12.3924
▁SHIT	-12.3924
▁Swear	-12.3924
▁Southern	-12.3925
▁DOWN	-12.3925
▁slapped	-12.3925
▁flipped	-12.3925
▁Merlin	-12.3926
▁liking	-12.3926
▁tapped	-12.3927
▁Bates	-12.3927
▁fright	-12.3927
▁Mount	-12.3928
▁Dieter	-12.3928
▁Graff	-12.3929
▁Nuke	-12.3929
▁swan	-12.393
▁glance	-12.393
▁hound	-12.393
▁olive	-12.3933
migration	-12.3936
▁raft	-12.3938
diac	-12.3939
located	-12.3964
▁whiz	-12.3998
5,000	-12.4001
50,000	-12.4006
▁dictate	-12.4027
▁semi	-12.4053
▁HEAR	-12.4139
food	-12.4233
John	-12.4233
worm	-12.4234
capable	-12.4237
enny	-12.4242
hello	-12.4244
▁blond	-12.4261
member	-12.4262
▁Goddam	-12.4264
▁communi	-12.4275
▁intellect	-12.428
ndustrial	-12.4281
rtificial	-12.4281
▁Adolf	-12.4281
▁Albanian	-12.4281
▁Clifton	-12.4281
▁Eventually	-12.4281
▁Ferrari	-12.4281
▁Grusinskaya	-12.4281
▁Hopkins	-12.4281
▁Hungry	-12.4281
▁Katrina	-12.4281
▁Mackelway	-12.4281
▁Michigan	-12.4281
▁Minutes	-12.4281
▁Pilgrim	-12.4281
▁Pleasure	-12.4281
▁Rexroth	-12.4281
▁Seventeen	-12.4281
▁Sicily	-12.4281
▁Splendid	-12.4281
▁Suddenly	-12.4281
▁WHY	-12.4281
▁Wendell	-12.4281
▁acquainted	-12.4281
▁anticipate	-12.4281
▁appointed	-12.4281
▁approval	-12.4281
▁blunt	-12.4281
▁calculate	-12.4281
▁circulation	-12.4281
▁congratulate	-12.4281
▁congratulations	-12.4281
▁eliminate	-12.4281
▁eternity	-12.4281
▁exposure	-12.4281
▁fountain	-12.4281
▁impatient	-12.4281
▁intimidate	-12.4281
▁maintenance	-12.4281
▁opportunities	-12.4281
▁salvage	-12.4281
▁significant	-12.4281
▁strung	-12.4281
▁thieves	-12.4281
▁Ferrie	-12.4281
▁Witness	-12.4281
▁accusation	-12.4281
▁anesthetic	-12.4281
▁assurance	-12.4281
▁compartment	-12.4281
▁discretion	-12.4281
▁disorder	-12.4281
▁hallucination	-12.4281
▁sympathi	-12.4281
▁Bennett	-12.4281
▁Burgel	-12.4281
▁Cosmo	-12.4281
▁Killaine	-12.4281
▁Tokyo	-12.4281
▁arriving	-12.4281
▁vodka	-12.4281
▁Donovan	-12.4281
▁stashed	-12.4281
▁hollow	-12.4281
▁crab	-12.4281
▁valid	-12.4281
▁excess	-12.4281
▁Sandro	-12.4281
▁annual	-12.4281
▁temptation	-12.4281
▁detonate	-12.4281
uincy	-12.4281
▁goofy	-12.4281
▁radical	-12.4281
▁turtle	-12.4281
▁NEED	-12.4281
▁vital	-12.4281
▁midget	-12.4281
▁Basil	-12.4281
▁graveyard	-12.4281
▁snitch	-12.4281
▁gown	-12.4282
▁gallon	-12.4282
▁plumber	-12.4282
▁edition	-12.4282
▁antique	-12.4282
▁Patrol	-12.4282
▁pepper	-12.4283
▁Phillippe	-12.4283
▁pinned	-12.4283
safe	-12.4283
▁Stella	-12.4284
▁valet	-12.4284
▁Ridge	-12.4284
▁Burger	-12.4284
▁sidewalk	-12.4284
▁cycle	-12.4284
▁sank	-12.4284
▁gangster	-12.4285
▁Tiger	-12.4286
▁development	-12.4287
▁starship	-12.4288
▁Marshall	-12.4288
SAT	-12.4288
▁Dumb	-12.4305
▁Touch	-12.4305
spired	-12.4374
▁magnetic	-12.439
urned	-12.4453
▁axe	-12.4582
crack	-12.4603
club	-12.4603
husband	-12.4603
dollar	-12.4604
ARD	-12.4643
▁surge	-12.4647
▁jeopardi	-12.4651
▁Affirmative	-12.4651
▁Birthday	-12.4651
▁Bontecou	-12.4651
▁Chewie	-12.4651
▁Continue	-12.4651
▁Cornwallis	-12.4651
▁Dmitri	-12.4651
▁GOOD	-12.4651
▁Greenleaf	-12.4651
▁Jonathan	-12.4651
▁Katharine	-12.4651
▁Kaufman	-12.4651
▁Program	-12.4651
▁Roderick	-12.4651
▁Society	-12.4651
▁Swayzak	-12.4651
▁Torrance	-12.4651
▁asylum	-12.4651
▁context	-12.4651
▁embrace	-12.4651
▁extension	-12.4651
▁fridge	-12.4651
▁global	-12.4651
▁innocence	-12.4651
▁irrelevant	-12.4651
▁irresponsible	-12.4651
▁messenger	-12.4651
▁nuisance	-12.4651
▁sensible	-12.4651
▁substance	-12.4651
▁surprising	-12.4651
▁sustain	-12.4651
▁Bijou	-12.4651
▁Colleen	-12.4651
▁Gulf	-12.4651
▁Llewelyn	-12.4651
▁corporation	-12.4651
▁earthquake	-12.4651
▁lifestyle	-12.4651
▁motorcycle	-12.4651
▁muffin	-12.4651
▁resident	-12.4651
▁Felson	-12.4651
▁Gideon	-12.4651
▁Period	-12.4651
▁Polish	-12.4651
▁fierce	-12.4651
▁harvest	-12.4651
▁judging	-12.4651
▁squirrel	-12.4651
Dracula	-12.4651
▁Arnie	-12.4651
▁Freud	-12.4651
▁NSA	-12.4651
▁ambush	-12.4651
▁gravy	-12.4651
▁promising	-12.4651
▁Lillian	-12.4651
▁seminar	-12.4651
▁Jesuit	-12.4651
▁replica	-12.4651
▁Fortress	-12.4651
▁Drunk	-12.4651
▁inspection	-12.4651
▁Amanda	-12.4651
▁resort	-12.4651
▁obey	-12.4651
▁Jasper	-12.4651
▁Conrad	-12.4651
▁Acme	-12.4651
▁absent	-12.4651
▁defect	-12.4651
▁Minor	-12.4651
▁dental	-12.4651
TELL	-12.4651
▁motto	-12.4651
▁creation	-12.4652
▁Kathy	-12.4652
▁Dillon	-12.4652
▁oven	-12.4652
▁Choice	-12.4652
▁napkin	-12.4652
▁induce	-12.4652
▁skate	-12.4652
▁Search	-12.4652
▁Brenda	-12.4652
▁scanner	-12.4653
▁Week	-12.4653
▁Grey	-12.4653
▁Joanne	-12.4654
▁embarrassment	-12.4654
▁massage	-12.4654
▁carrot	-12.4654
▁elder	-12.4654
▁IRS	-12.4654
▁Marlon	-12.4655
▁Princeton	-12.4655
▁Dutch	-12.4655
▁sanct	-12.4655
▁Cherry	-12.4655
▁faking	-12.4656
▁Falco	-12.4656
▁Cookie	-12.4656
avier	-12.4656
▁employment	-12.4657
▁leech	-12.4657
▁grasp	-12.4664
morrow	-12.4743
▁cruis	-12.4808
truck	-12.486
arrang	-12.4912
THE	-12.4974
▁erect	-12.4985
Tell	-12.499
▁frequent	-12.5006
▁infect	-12.502
▁Smoke	-12.5026
▁Cecil	-12.5028
OULD	-12.5036
▁Bastaldi	-12.5036
▁Carlotta	-12.5036
▁Clemenza	-12.5036
▁Columbia	-12.5036
▁Georgie	-12.5036
▁Grendel	-12.5036
▁Homicide	-12.5036
▁Hunsecker	-12.5036
▁Krypton	-12.5036
▁Mademoiselle	-12.5036
▁McCord	-12.5036
▁Metropoli	-12.5036
▁Phyllis	-12.5036
▁Prague	-12.5036
▁Retrieval	-12.5036
▁Steady	-12.5036
▁Thanksgiving	-12.5036
▁Vallens	-12.5036
▁alphabet	-12.5036
▁ambitious	-12.5036
▁demonstration	-12.5036
▁economy	-12.5036
▁experiencing	-12.5036
▁hydro	-12.5036
▁identification	-12.5036
▁implication	-12.5036
▁janitor	-12.5036
▁marijuana	-12.5036
▁microwave	-12.5036
▁occupied	-12.5036
▁pneumonia	-12.5036
▁prettier	-12.5036
▁scholarship	-12.5036
▁sequence	-12.5036
▁shrimp	-12.5036
▁skating	-12.5036
▁stabilize	-12.5036
▁university	-12.5036
▁veteran	-12.5036
▁wardrobe	-12.5036
▁wrestling	-12.5036
▁Blair	-12.5036
▁Nigel	-12.5036
▁Smythe	-12.5036
▁Talby	-12.5036
▁conceive	-12.5036
▁grudge	-12.5036
▁landlord	-12.5036
▁obtain	-12.5036
▁prejudice	-12.5036
▁Bronx	-12.5036
▁Skye	-12.5036
▁Summer	-12.5036
▁elevate	-12.5036
▁paradise	-12.5036
▁schmuck	-12.5036
▁Havana	-12.5036
▁carriage	-12.5036
▁endanger	-12.5036
▁Rufus	-12.5036
▁Salvy	-12.5036
▁Village	-12.5036
▁Flaemm	-12.5036
▁Hindu	-12.5036
▁Rekall	-12.5036
▁Arlyn	-12.5036
▁render	-12.5036
▁rival	-12.5036
▁Disney	-12.5036
▁Sooze	-12.5036
▁Siberia	-12.5036
▁dried	-12.5036
▁chunk	-12.5036
▁boast	-12.5036
▁Barrett	-12.5036
▁crude	-12.5036
▁Fresh	-12.5036
▁Herbert	-12.5036
▁Ringo	-12.5036
▁Everett	-12.5036
▁Bluestar	-12.5036
▁Charge	-12.5036
▁comedian	-12.5037
▁furious	-12.5037
▁convey	-12.5037
▁representative	-12.5037
▁Dowd	-12.5037
▁battlefield	-12.5037
▁interference	-12.5037
▁honour	-12.5037
hind	-12.5037
▁fetch	-12.5038
▁Leaving	-12.5038
▁hatred	-12.5038
▁membership	-12.5038
▁info	-12.5038
▁Laugh	-12.5038
▁crane	-12.5038
▁Operation	-12.5038
▁stray	-12.5039
▁spoon	-12.5039
▁Middle	-12.5039
▁avenge	-12.504
▁blaze	-12.505
▁Dunn	-12.5052
▁litera	-12.5077
ovic	-12.5108
referred	-12.5259
▁Disco	-12.5263
▁hustl	-12.5342
Face	-12.5388
everything	-12.5388
Wait	-12.5388
great	-12.5389
high	-12.5391
Bride	-12.5418
▁precise	-12.5429
▁Appleton	-12.5436
▁Assistant	-12.5436
▁Bernard	-12.5436
▁Broadway	-12.5436
▁Charming	-12.5436
▁Lindenmeyer	-12.5436
▁Mercedes	-12.5436
▁Meredith	-12.5436
▁Narcissus	-12.5436
▁Olsen	-12.5436
▁Pendergast	-12.5436
▁Sefton	-12.5436
▁Wladek	-12.5436
▁apologies	-12.5436
▁bloke	-12.5436
▁bourbon	-12.5436
▁comparison	-12.5436
▁compulsive	-12.5436
▁fragile	-12.5436
▁happiest	-12.5436
▁imagining	-12.5436
▁lantern	-12.5436
▁lizard	-12.5436
▁metaphor	-12.5436
▁monsieur	-12.5436
▁quarantine	-12.5436
▁refuge	-12.5436
▁unpredictable	-12.5436
▁wretched	-12.5436
▁yonder	-12.5436
▁Praetor	-12.5436
▁Reliant	-12.5436
▁Sampson	-12.5436
▁Spitz	-12.5436
▁conservative	-12.5436
▁enhance	-12.5436
▁heavily	-12.5436
▁praise	-12.5436
▁Carolyn	-12.5436
▁Gardner	-12.5436
▁Harper	-12.5436
▁Shermin	-12.5436
▁flick	-12.5436
▁wacko	-12.5436
▁Comanche	-12.5436
▁Hauser	-12.5436
▁SAY	-12.5436
▁Cairo	-12.5436
▁eject	-12.5436
▁Archie	-12.5436
▁Marietta	-12.5436
▁combined	-12.5436
▁kitten	-12.5436
▁Tammy	-12.5436
▁trifle	-12.5436
▁Drexl	-12.5436
▁Isaac	-12.5436
▁Verona	-12.5436
▁isolated	-12.5436
▁creating	-12.5436
▁proving	-12.5436
▁mysteries	-12.5436
▁Hutton	-12.5436
▁retail	-12.5436
▁Hobbs	-12.5436
▁hesitate	-12.5436
▁snort	-12.5436
▁Ooooo	-12.5436
▁Bingo	-12.5436
▁Hawkins	-12.5436
▁Switch	-12.5436
▁rumour	-12.5436
▁Athos	-12.5437
▁favourite	-12.5437
▁Marcia	-12.5437
▁Airport	-12.5437
▁hoax	-12.5438
▁Steel	-12.5438
▁grill	-12.5438
▁lump	-12.5441
▁Grove	-12.5442
▁Sssh	-12.5492
Luc	-12.5526
▁dye	-12.5652
▁nasa	-12.57
Guess	-12.5805
People	-12.5805
Would	-12.5805
Two	-12.5805
stream	-12.5805
from	-12.5806
speak	-12.5807
▁accord	-12.583
EEN	-12.5837
piration	-12.5851
▁Engine	-12.5852
▁Almighty	-12.5852
▁Beauty	-12.5852
▁Beyond	-12.5852
▁Boatwright	-12.5852
▁Commodus	-12.5852
▁DAMN	-12.5852
▁Diamond	-12.5852
▁ELLEN	-12.5852
▁Enrique	-12.5852
▁Foreign	-12.5852
▁HOW	-12.5852
▁Holiness	-12.5852
▁Hudsucker	-12.5852
▁Hungarian	-12.5852
▁Jaeger	-12.5852
▁Lefferts	-12.5852
▁Lonnegan	-12.5852
▁Nexus	-12.5852
▁Prescott	-12.5852
▁SWAT	-12.5852
▁Segretti	-12.5852
▁approximately	-12.5852
▁bathtub	-12.5852
▁chromium	-12.5852
▁contempt	-12.5852
▁credibility	-12.5852
▁fugitive	-12.5852
▁galaxy	-12.5852
▁infiltrat	-12.5852
▁inquiry	-12.5852
▁luxury	-12.5852
▁militia	-12.5852
▁philosopher	-12.5852
▁prescription	-12.5852
▁prototype	-12.5852
▁radioactive	-12.5852
▁reconcil	-12.5852
▁substantial	-12.5852
▁syndrome	-12.5852
▁unemployed	-12.5852
▁unnatural	-12.5852
▁windshield	-12.5852
▁Divorce	-12.5852
▁Hobbes	-12.5852
▁Joyce	-12.5852
▁NBA	-12.5852
▁catalog	-12.5852
▁password	-12.5852
▁Describ	-12.5852
▁Giron	-12.5852
▁Harlin	-12.5852
▁Ratched	-12.5852
▁Ruben	-12.5852
▁burial	-12.5852
▁trading	-12.5852
▁Several	-12.5852
▁blur	-12.5852
▁pursuit	-12.5852
▁Britain	-12.5852
▁Dawn	-12.5852
▁Lothar	-12.5852
▁rigged	-12.5852
▁Ethel	-12.5852
▁Manager	-12.5852
▁Punch	-12.5852
Higgins	-12.5852
▁SEC	-12.5852
▁prominent	-12.5852
▁Steal	-12.5852
▁chef	-12.5852
▁extent	-12.5852
▁Welsh	-12.5853
▁Wessex	-12.5853
▁Cuz	-12.5853
▁bingo	-12.5853
▁smug	-12.5853
▁Glass	-12.5853
▁tasty	-12.5853
▁substitute	-12.5853
▁meltdown	-12.5853
▁masterpiece	-12.5853
▁biological	-12.5853
▁subconscious	-12.5853
▁Cancer	-12.5853
▁Pierre	-12.5853
▁Bugs	-12.5854
▁Churchill	-12.5854
▁waving	-12.5854
▁Tired	-12.5854
▁cadet	-12.5855
▁View	-12.5855
▁dart	-12.5855
▁Produc	-12.5889
piggy	-12.5946
misunderstanding	-12.6024
▁Rout	-12.6084
eckon	-12.6104
quired	-12.6154
AST	-12.6203
people	-12.6239
Remember	-12.624
third	-12.624
Time	-12.6248
NCE	-12.6252
▁Gordo	-12.6279
▁Clair	-12.628
aaah	-12.6282
▁posse	-12.6282
▁abort	-12.6284
▁Admit	-12.6285
efficient	-12.6287
oeuvre	-12.6287
quisition	-12.6287
▁ARCADE	-12.6287
▁Benedict	-12.6287
▁Bottom	-12.6287
▁Boulevard	-12.6287
▁Buljanoff	-12.6287
▁Counselor	-12.6287
▁Crabtree	-12.6287
▁Daughter	-12.6287
▁Geneva	-12.6287
▁Gestapo	-12.6287
▁Gondorff	-12.6287
▁Harbor	-12.6287
▁Humperdinck	-12.6287
▁Investigation	-12.6287
▁Kincaid	-12.6287
▁LAPD	-12.6287
▁Mayfair	-12.6287
▁Mayflower	-12.6287
▁Meadow	-12.6287
▁Michelle	-12.6287
▁Olympic	-12.6287
▁Preacher	-12.6287
▁Sanchez	-12.6287
▁Shinzon	-12.6287
▁Skinny	-12.6287
▁Sollozzo	-12.6287
▁Suzette	-12.6287
▁Universe	-12.6287
▁Viznick	-12.6287
▁Wisconsin	-12.6287
▁amnesia	-12.6287
▁babbling	-12.6287
▁bankrupt	-12.6287
▁calendar	-12.6287
▁competitive	-12.6287
▁continent	-12.6287
▁convenience	-12.6287
▁council	-12.6287
▁crucial	-12.6287
▁deputies	-12.6287
▁disbarred	-12.6287
▁eccentric	-12.6287
▁elaborate	-12.6287
▁elegant	-12.6287
▁financing	-12.6287
▁humiliating	-12.6287
▁inviting	-12.6287
▁mechanism	-12.6287
▁pronounc	-12.6287
▁protocol	-12.6287
▁receiving	-12.6287
▁recognition	-12.6287
▁redneck	-12.6287
▁relevant	-12.6287
▁scoundrel	-12.6287
▁semester	-12.6287
▁shuffleboard	-12.6287
▁solitary	-12.6287
▁stereo	-12.6287
illennium	-12.6287
▁Missouri	-12.6287
▁Nyah	-12.6287
▁accelera	-12.6287
▁hawk	-12.6287
▁pennies	-12.6287
▁platform	-12.6287
▁sleeve	-12.6287
▁Pooch	-12.6287
▁Trinity	-12.6287
▁academy	-12.6287
▁detonation	-12.6287
▁harmony	-12.6287
▁penalty	-12.6287
▁surgical	-12.6287
▁applied	-12.6287
▁racial	-12.6287
▁videotape	-12.6287
Chronicle	-12.6287
▁nude	-12.6287
▁wiring	-12.6287
eMille	-12.6287
▁ethical	-12.6287
▁Denning	-12.6287
▁Mummy	-12.6287
▁Kissinger	-12.6287
▁imitate	-12.6287
▁tackle	-12.6287
▁Norbert	-12.6287
▁Gwen	-12.6287
▁warfare	-12.6287
▁Gross	-12.6287
▁goddammit	-12.6287
▁Breath	-12.6287
▁Lotta	-12.6287
▁Tatum	-12.6287
Beloved	-12.6287
▁mailbox	-12.6287
▁Marcel	-12.6287
▁Smile	-12.6287
▁Casper	-12.6287
▁Asshole	-12.6288
▁persist	-12.6288
▁Otho	-12.6288
▁roar	-12.6288
▁Hopefully	-12.6288
▁jog	-12.6288
▁Steer	-12.6288
▁grind	-12.6288
▁Esther	-12.6288
▁Level	-12.6288
▁clap	-12.6288
▁Proud	-12.629
Physical	-12.629
▁Strike	-12.629
▁lesion	-12.6291
▁Snap	-12.6294
▁tactical	-12.6312
▁Livingston	-12.6345
▁Medal	-12.6349
abl	-12.65
▁conspir	-12.6561
punk	-12.6575
▁Suppos	-12.6579
▁magnet	-12.6603
trained	-12.6611
▁thermo	-12.6612
▁Clem	-12.6613
▁indulge	-12.6616
Heaven	-12.6694
pilot	-12.6697
control	-12.6701
trok	-12.6721
▁exhaust	-12.6722
▁numb	-12.6729
▁Austria	-12.6733
▁Barrenger	-12.6742
▁Baldwin	-12.6742
▁Bracken	-12.6742
▁Brynner	-12.6742
▁Cigarette	-12.6742
▁Clementine	-12.6742
▁Cohaagen	-12.6742
▁Corbett	-12.6742
▁Destiny	-12.6742
▁Fortunately	-12.6742
▁Libbets	-12.6742
▁Lugosi	-12.6742
▁Magruder	-12.6742
▁Malloy	-12.6742
▁Mandrake	-12.6742
▁Massachusetts	-12.6742
▁Masseria	-12.6742
▁Nevada	-12.6742
▁Pennsylvania	-12.6742
▁Renault	-12.6742
▁Research	-12.6742
▁Rizzo	-12.6742
▁Skywire	-12.6742
▁Stensland	-12.6742
▁Switzerland	-12.6742
▁Sybok	-12.6742
▁Sylvia	-12.6742
▁Vincennes	-12.6742
▁Woodsboro	-12.6742
▁absorb	-12.6742
▁adrenaline	-12.6742
▁advertise	-12.6742
▁aircraft	-12.6742
▁antidote	-12.6742
▁artifact	-12.6742
▁association	-12.6742
▁caffeine	-12.6742
▁cheeseburger	-12.6742
▁comprehend	-12.6742
▁courier	-12.6742
▁demonstrate	-12.6742
▁deploy	-12.6742
▁depression	-12.6742
▁easiest	-12.6742
▁facilities	-12.6742
▁fundamental	-12.6742
▁generator	-12.6742
▁homicidal	-12.6742
▁hypocrite	-12.6742
▁inclined	-12.6742
▁infinite	-12.6742
▁insignificant	-12.6742
▁insomnia	-12.6742
▁intuition	-12.6742
▁misplaced	-12.6742
▁nipple	-12.6742
▁obstetric	-12.6742
▁philosophical	-12.6742
▁pitiful	-12.6742
▁prosecute	-12.6742
▁quadrant	-12.6742
▁radius	-12.6742
▁remorse	-12.6742
▁rephrase	-12.6742
▁squat	-12.6742
▁sunshine	-12.6742
▁tutor	-12.6742
▁vengeance	-12.6742
▁voodoo	-12.6742
▁Crazy	-12.6742
▁Duncan	-12.6742
▁Halloran	-12.6742
▁Nigger	-12.6742
▁Vietnamese	-12.6742
▁defence	-12.6742
▁flavor	-12.6742
▁lobster	-12.6742
▁postcard	-12.6742
▁stomp	-12.6742
▁waltz	-12.6742
▁Hemingway	-12.6742
▁Sophia	-12.6742
▁chalk	-12.6742
▁consciousness	-12.6742
▁insanity	-12.6742
▁protein	-12.6742
▁Engineering	-12.6742
▁wimp	-12.6742
Brien	-12.6742
▁Taupin	-12.6742
▁orgasm	-12.6742
▁transform	-12.6742
▁Aramis	-12.6742
▁Scream	-12.6742
▁french	-12.6742
▁Kross	-12.6742
▁Self	-12.6742
▁Claim	-12.6742
▁ANY	-12.6742
OWN	-12.6742
▁bloodshed	-12.6742
▁Truly	-12.6742
▁manipulate	-12.6742
▁console	-12.6742
▁adapt	-12.6742
▁Catwoman	-12.6742
▁feast	-12.6742
▁margin	-12.6742
▁wilt	-12.6742
▁roam	-12.6742
▁stub	-12.6742
▁Abbe	-12.6743
▁Gayle	-12.6744
▁Travel	-12.6749
Connor	-12.6753
ridden	-12.6771
ordinate	-12.6882
currently	-12.7
▁sentiment	-12.7113
truth	-12.7143
Connell	-12.717
teacher	-12.717
James	-12.717
brother	-12.717
should	-12.717
▁charg	-12.7188
▁teenage	-12.7204
▁Personal	-12.7211
Cinderella	-12.7218
OUND	-12.7218
▁Abbott	-12.7218
▁Barzini	-12.7218
▁Bialystock	-12.7218
▁Channel	-12.7218
▁Cluett	-12.7218
▁Crabs	-12.7218
▁Dakota	-12.7218
▁GODDAMN	-12.7218
▁HURT	-12.7218
▁Headquarters	-12.7218
▁Jealous	-12.7218
▁Jeremiah	-12.7218
▁Lindsey	-12.7218
▁Pentangeli	-12.7218
▁Perrault	-12.7218
▁Purple	-12.7218
▁Reiben	-12.7218
▁Rennie	-12.7218
▁Rheya	-12.7218
▁Sparazza	-12.7218
▁Stifler	-12.7218
▁Sutphin	-12.7218
▁Sweeney	-12.7218
▁Syndrome	-12.7218
▁Tobacco	-12.7218
▁Tribune	-12.7218
▁Vatican	-12.7218
▁Wagner	-12.7218
▁Whistler	-12.7218
▁accomplice	-12.7218
▁barbecue	-12.7218
▁buffalo	-12.7218
▁clarify	-12.7218
▁cunning	-12.7218
▁dialogue	-12.7218
▁disobey	-12.7218
▁distinguish	-12.7218
▁extortion	-12.7218
▁hurricane	-12.7218
▁inconvenience	-12.7218
▁initiative	-12.7218
▁negotiating	-12.7218
▁nicotine	-12.7218
▁occupy	-12.7218
▁perception	-12.7218
▁premature	-12.7218
▁recollect	-12.7218
▁skeleton	-12.7218
▁squawk	-12.7218
▁supermarket	-12.7218
▁syndicate	-12.7218
▁technique	-12.7218
▁umbrella	-12.7218
▁vitamin	-12.7218
▁wallpaper	-12.7218
▁xxxxxx	-12.7218
▁zombie	-12.7218
▁Apollo	-12.7218
▁Arctic	-12.7218
▁Bubber	-12.7218
▁Buffalo	-12.7218
▁Dillinger	-12.7218
▁Motherfucker	-12.7218
▁Outpost	-12.7218
▁alleged	-12.7218
▁cosmic	-12.7218
▁gladiator	-12.7218
▁precog	-12.7218
▁proportion	-12.7218
▁suburb	-12.7218
▁verify	-12.7218
▁Climb	-12.7218
▁Lawrence	-12.7218
▁Rooney	-12.7218
▁assemble	-12.7218
▁butterfly	-12.7218
▁indicted	-12.7218
▁outrageous	-12.7218
▁unarmed	-12.7218
▁wilderness	-12.7218
▁Proceed	-12.7218
▁Reason	-12.7218
▁Renard	-12.7218
▁Bodhi	-12.7218
AUSE	-12.7218
▁skank	-12.7218
▁shaft	-12.7218
▁asteroid	-12.7218
▁Kalen	-12.7218
▁Pretend	-12.7218
▁Dumper	-12.7218
▁Bleek	-12.7218
▁historical	-12.7218
▁slippers	-12.7218
▁Caswell	-12.7218
▁Mothershead	-12.7218
▁internet	-12.7218
▁marshal	-12.7218
migod	-12.7218
▁isolation	-12.7218
▁Algeria	-12.7218
▁prosper	-12.7218
▁Social	-12.7218
▁Deliver	-12.7218
▁handicap	-12.7219
▁shuffl	-12.7219
▁Flip	-12.7224
▁liberat	-12.7225
▁text	-12.7227
easant	-12.7233
struction	-12.7352
Recon	-12.7416
▁involv	-12.7481
▁measl	-12.7487
deemed	-12.7522
Franco	-12.7602
experience	-12.767
Louis	-12.767
second	-12.767
first	-12.767
direct	-12.7686
▁smokin	-12.7714
▁analyst	-12.7718
doubtedly	-12.7718
flexible	-12.7718
▁ABOUT	-12.7718
▁Amendment	-12.7718
▁Armitage	-12.7718
▁Aubrey	-12.7718
▁Capitol	-12.7718
▁Colombia	-12.7718
▁Communications	-12.7718
▁Emerald	-12.7718
▁Football	-12.7718
▁Greetings	-12.7718
▁Grissom	-12.7718
▁Isabella	-12.7718
▁Juarez	-12.7718
▁Lednov	-12.7718
▁Nashville	-12.7718
▁Nunez	-12.7718
▁Pamela	-12.7718
▁Parrish	-12.7718
▁Pasadena	-12.7718
▁Patience	-12.7718
▁Practice	-12.7718
▁Riddick	-12.7718
▁Rorschach	-12.7718
▁Salvatore	-12.7718
▁Stargher	-12.7718
▁Tahoe	-12.7718
▁Tennessee	-12.7718
▁Tijuana	-12.7718
▁Typical	-12.7718
▁Virgil	-12.7718
▁Windham	-12.7718
▁Worley	-12.7718
▁abstract	-12.7718
▁academic	-12.7718
▁administer	-12.7718
▁ammunition	-12.7718
▁apprentice	-12.7718
▁athlete	-12.7718
▁authentic	-12.7718
▁cautious	-12.7718
▁climax	-12.7718
▁crucify	-12.7718
▁despair	-12.7718
▁destination	-12.7718
▁disciple	-12.7718
▁disregard	-12.7718
▁drastic	-12.7718
▁exaggerating	-12.7718
▁ghetto	-12.7718
▁grandparents	-12.7718
▁handwriting	-12.7718
▁hormone	-12.7718
▁ignoring	-12.7718
▁inevitable	-12.7718
▁john	-12.7718
▁moustache	-12.7718
▁neglect	-12.7718
▁plaintiff	-12.7718
▁plaster	-12.7718
▁poverty	-12.7718
▁precinct	-12.7718
▁preposterous	-12.7718
▁producing	-12.7718
▁registration	-12.7718
▁retrieve	-12.7718
▁rhythm	-12.7718
▁rooster	-12.7718
▁rupture	-12.7718
▁saxophone	-12.7718
▁sergeant	-12.7718
▁simulation	-12.7718
▁staircase	-12.7718
▁superstition	-12.7718
▁superstitious	-12.7718
▁tampering	-12.7718
▁trespass	-12.7718
▁twelfth	-12.7718
▁ulcer	-12.7718
▁unemployment	-12.7718
▁ungrateful	-12.7718
▁vibration	-12.7718
▁vulgar	-12.7718
arshmallow	-12.7718
nesthesiology	-12.7718
▁Chilton	-12.7718
▁Hirsch	-12.7718
▁expire	-12.7718
▁footsteps	-12.7718
▁gasoline	-12.7718
▁refund	-12.7718
▁spectacle	-12.7718
▁FIRE	-12.7718
▁Hammer	-12.7718
▁confined	-12.7718
▁injustice	-12.7718
▁medieval	-12.7718
▁Dirty	-12.7718
▁cheque	-12.7718
▁Lainey	-12.7718
▁gallant	-12.7718
▁Sissy	-12.7718
▁antenna	-12.7718
▁baptiz	-12.7718
▁Satch	-12.7718
▁gorilla	-12.7718
▁sordid	-12.7718
▁bugged	-12.7718
▁Vomit	-12.7718
▁patio	-12.7718
▁Lingk	-12.7718
▁overheard	-12.7718
▁Wadda	-12.7718
▁gasket	-12.7718
▁memorize	-12.7718
▁shelf	-12.7718
▁Milk	-12.7719
ONNA	-12.7719
▁reek	-12.7719
▁tuna	-12.7719
▁Idiot	-12.7719
▁Senor	-12.772
forsaken	-12.772
▁obstruct	-12.7721
easure	-12.7739
brook	-12.775
▁shiv	-12.7827
aaaaaa	-12.7849
build	-12.7901
▁redeem	-12.8017
Future	-12.8174
haired	-12.8174
▁aspirin	-12.8186
together	-12.8196
screen	-12.8196
Doctor	-12.8197
With	-12.8197
spiring	-12.8218
▁Serious	-12.8237
▁Republic	-12.8242
▁Virgin	-12.8243
▁BREAK	-12.8244
ammito	-12.8244
ficiency	-12.8244
▁Albany	-12.8244
▁Anastasia	-12.8244
▁Arbogast	-12.8244
▁BULLSHIT	-12.8244
▁Barnhardt	-12.8244
▁Bembry	-12.8244
▁Bolshevik	-12.8244
▁Breakfast	-12.8244
▁Diplomat	-12.8244
▁Ellsberg	-12.8244
▁Hammond	-12.8244
▁Incidentally	-12.8244
▁Keitel	-12.8244
▁Khruschev	-12.8244
▁Kimberly	-12.8244
▁LESLIE	-12.8244
▁LOST	-12.8244
▁Langley	-12.8244
▁Lovejoy	-12.8244
▁Macaulay	-12.8244
▁Mantini	-12.8244
▁PLEASE	-12.8244
▁Scooter	-12.8244
▁Sicilian	-12.8244
▁Simpson	-12.8244
▁Sinatra	-12.8244
▁Smoking	-12.8244
▁Superior	-12.8244
▁Thailand	-12.8244
▁Titanic	-12.8244
▁Vampire	-12.8244
▁Verbal	-12.8244
▁ambassador	-12.8244
▁ancestors	-12.8244
▁arrival	-12.8244
▁cafeteria	-12.8244
▁climate	-12.8244
▁contagious	-12.8244
▁currency	-12.8244
▁debris	-12.8244
▁dolphin	-12.8244
▁duplicate	-12.8244
▁emperor	-12.8244
▁expelled	-12.8244
▁gallery	-12.8244
▁incompetent	-12.8244
▁numero	-12.8244
▁parachute	-12.8244
▁pornography	-12.8244
▁puppies	-12.8244
▁ruthless	-12.8244
▁scattered	-12.8244
▁seizure	-12.8244
▁suffocating	-12.8244
▁suicidal	-12.8244
▁toothbrush	-12.8244
▁transplant	-12.8244
▁treason	-12.8244
▁trumpet	-12.8244
▁Capital	-12.8244
▁Expect	-12.8244
▁Louisiana	-12.8244
▁Nevertheless	-12.8244
▁conquest	-12.8244
▁deputy	-12.8244
▁immense	-12.8244
▁perpetua	-12.8244
▁wrinkle	-12.8244
▁Cycl	-12.8244
▁Milton	-12.8244
▁Monroe	-12.8244
▁Selena	-12.8244
▁carpenter	-12.8244
▁crunch	-12.8244
▁jinx	-12.8244
▁pegged	-12.8244
▁slippery	-12.8244
▁Cyrus	-12.8244
▁Penthouse	-12.8244
▁martyr	-12.8244
▁navy	-12.8244
▁variation	-12.8244
ifiable	-12.8244
▁Blanc	-12.8244
▁Tramell	-12.8244
▁repressed	-12.8244
ATION	-12.8244
▁Czar	-12.8244
▁Venus	-12.8244
▁bayonet	-12.8244
▁mutilate	-12.8244
▁precede	-12.8244
▁robbing	-12.8244
▁Miniatur	-12.8244
▁fetish	-12.8244
▁Decker	-12.8244
▁Solomon	-12.8244
▁doomed	-12.8244
▁Watson	-12.8244
▁Leslie	-12.8244
▁garter	-12.8244
▁reconstruct	-12.8244
▁Hebrew	-12.8244
▁whining	-12.8244
▁Oona	-12.8244
▁archive	-12.8244
▁Sandman	-12.8244
▁Sonora	-12.8244
▁Mystery	-12.8244
▁lethal	-12.8244
▁Pedro	-12.8244
▁Silly	-12.8244
osaur	-12.8245
▁frisk	-12.8245
▁Ooooh	-12.8245
▁Freak	-12.8245
▁dissect	-12.8247
▁decode	-12.8248
▁forensic	-12.8251
Cooch	-12.8251
▁Bodeg	-12.8259
▁funnie	-12.8269
▁fianc	-12.8322
AGE	-12.8398
▁Doubt	-12.8545
destruct	-12.8706
complete	-12.8752
fifteen	-12.8752
daughter	-12.8752
beautiful	-12.8752
Equ	-12.8774
▁neutr	-12.878
Anarchy	-12.88
February	-12.88
Kobayashi	-12.88
naissance	-12.88
▁Alyssa	-12.88
▁Applejack	-12.88
▁Arroway	-12.88
▁Bahamas	-12.88
▁Bergman	-12.88
▁Casanova	-12.88
▁Cincinnati	-12.88
▁Constantinople	-12.88
▁Dreyfuss	-12.88
▁Gazzo	-12.88
▁Gibarian	-12.88
▁Johana	-12.88
▁Katherine	-12.88
▁Kopalski	-12.88
▁Kronos	-12.88
▁Manzetti	-12.88
▁Marseille	-12.88
▁Matrix	-12.88
▁McGrud	-12.88
▁Memorial	-12.88
▁Precog	-12.88
▁Schmidt	-12.88
▁Scooby	-12.88
▁Senior	-12.88
▁Skywalker	-12.88
▁Spider	-12.88
▁TURN	-12.88
▁Tatiana	-12.88
▁Thirteen	-12.88
▁Vitamin	-12.88
▁agitated	-12.88
▁alternate	-12.88
▁apologizing	-12.88
▁arrogance	-12.88
▁bicycle	-12.88
▁biscuits	-12.88
▁blush	-12.88
▁category	-12.88
▁celebrating	-12.88
▁concentrating	-12.88
▁concussion	-12.88
▁cooperating	-12.88
▁credentials	-12.88
▁degenerate	-12.88
▁desecrat	-12.88
▁dilemma	-12.88
▁efficiency	-12.88
▁emphasi	-12.88
▁grandchildren	-12.88
▁identical	-12.88
▁immune	-12.88
▁inconvenient	-12.88
▁injuries	-12.88
▁interfering	-12.88
▁livelihood	-12.88
▁optimistic	-12.88
▁pajamas	-12.88
▁penitent	-12.88
▁provoke	-12.88
▁rebuttal	-12.88
▁refusing	-12.88
▁sculpture	-12.88
▁skunk	-12.88
▁stenographer	-12.88
▁tabloid	-12.88
▁technician	-12.88
▁tractor	-12.88
▁variety	-12.88
▁vegetarian	-12.88
▁BMW	-12.88
▁Corvis	-12.88
▁Disappear	-12.88
▁Doneghy	-12.88
▁Pablo	-12.88
▁playwright	-12.88
▁questionnaire	-12.88
▁sausage	-12.88
▁souvenir	-12.88
▁tumor	-12.88
▁Jessie	-12.88
▁Rocco	-12.88
▁essence	-12.88
▁liberal	-12.88
▁salute	-12.88
▁Alamo	-12.88
▁Mumford	-12.88
▁CUT	-12.88
▁nobility	-12.88
▁sedative	-12.88
▁Jenkins	-12.88
▁bimbo	-12.88
▁ponies	-12.88
▁bliss	-12.88
▁parallel	-12.88
▁goddess	-12.88
▁bleach	-12.88
▁commend	-12.88
▁rmph	-12.88
▁proverb	-12.88
▁mumbo	-12.88
▁Shelby	-12.88
▁ooze	-12.88
▁peddle	-12.88
▁Famous	-12.88
▁dispute	-12.88
▁calf	-12.88
▁Twist	-12.88
▁override	-12.88
▁exterminat	-12.88
uvenile	-12.88
▁frantic	-12.88
nvoy	-12.88
▁Sharp	-12.88
▁endorse	-12.8801
▁hunk	-12.8802
▁grub	-12.8802
▁Sacr	-12.8802
▁graphic	-12.8802
chemist	-12.8804
dmittance	-12.8813
▁Eloi	-12.8814
▁reviv	-12.8817
logged	-12.8823
ISH	-12.8837
▁decorati	-12.8853
▁Merci	-12.891
meaningful	-12.8923
▁Wheel	-12.9033
▁multi	-12.916
probable	-12.9179
Sec	-12.9204
Death	-12.934
number	-12.934
First	-12.934
▁Montoya	-12.9388
▁knack	-12.9388
▁merciful	-12.9388
Algout	-12.9388
extraterrestrial	-12.9388
ilithium	-12.9388
uperintendent	-12.9388
▁Alonzo	-12.9388
▁Authority	-12.9388
▁CREEP	-12.9388
▁Champagne	-12.9388
▁Charenton	-12.9388
▁Charlotte	-12.9388
▁Criminal	-12.9388
▁Crunch	-12.9388
▁Crusher	-12.9388
▁Denham	-12.9388
▁Driscoll	-12.9388
▁Emmett	-12.9388
▁Escobar	-12.9388
▁HELP	-12.9388
▁Humpback	-12.9388
▁Kafka	-12.9388
▁Karras	-12.9388
▁Kessler	-12.9388
▁Lundegaard	-12.9388
▁Madmartigan	-12.9388
▁Madonna	-12.9388
▁Maharajah	-12.9388
▁McGann	-12.9388
▁Mercury	-12.9388
▁Mordechai	-12.9388
▁Morlocks	-12.9388
▁Musketeer	-12.9388
▁NASA	-12.9388
▁Niagara	-12.9388
▁Nikki	-12.9388
▁Nuclear	-12.9388
▁Plissken	-12.9388
▁Resurrection	-12.9388
▁Reynard	-12.9388
▁Sanctuary	-12.9388
▁Sandefur	-12.9388
▁Sioux	-12.9388
▁THINK	-12.9388
▁Tattaglia	-12.9388
▁Teasdale	-12.9388
▁Treasury	-12.9388
▁Venezuela	-12.9388
▁Whitney	-12.9388
▁Whittlesley	-12.9388
▁abilities	-12.9388
▁almighty	-12.9388
▁anatomy	-12.9388
▁astronaut	-12.9388
▁athletic	-12.9388
▁ballplayer	-12.9388
▁banquet	-12.9388
▁bourgeois	-12.9388
▁butterflies	-12.9388
▁calculation	-12.9388
▁carnival	-12.9388
▁chauffeur	-12.9388
▁communicating	-12.9388
▁crazier	-12.9388
▁curfew	-12.9388
▁cylinder	-12.9388
▁deWitt	-12.9388
▁dwarf	-12.9388
▁fambly	-12.9388
▁fruitcake	-12.9388
▁frustrated	-12.9388
▁glamour	-12.9388
▁inferior	-12.9388
▁inquiries	-12.9388
▁intrigue	-12.9388
▁jeans	-12.9388
▁jellyfish	-12.9388
▁mathematics	-12.9388
▁maximum	-12.9388
▁morbid	-12.9388
▁obsolete	-12.9388
▁prevail	-12.9388
▁prosecution	-12.9388
▁reincarnation	-12.9388
▁roadblock	-12.9388
▁rubbish	-12.9388
▁schizophreni	-12.9388
▁spectacular	-12.9388
▁spontaneous	-12.9388
▁survey	-12.9388
▁temporarily	-12.9388
▁transvestite	-12.9388
▁trembling	-12.9388
▁twentieth	-12.9388
▁wolves	-12.9388
▁Delaney	-12.9388
▁Firefly	-12.9388
▁Hinkel	-12.9388
▁catastroph	-12.9388
▁enquir	-12.9388
▁evident	-12.9388
▁fracture	-12.9388
▁imitation	-12.9388
▁librarian	-12.9388
▁massacre	-12.9388
▁Account	-12.9388
▁Female	-12.9388
▁Fruit	-12.9388
▁Muslim	-12.9388
▁Request	-12.9388
▁recipe	-12.9388
▁BUT	-12.9388
▁Shadow	-12.9388
▁Sierra	-12.9388
▁bulb	-12.9388
▁sniper	-12.9388
▁software	-12.9388
▁verdict	-12.9388
▁behaving	-12.9388
▁lumber	-12.9388
▁vapor	-12.9388
▁Daisy	-12.9388
▁cherish	-12.9388
▁Miguel	-12.9388
▁ruling	-12.9388
▁wrench	-12.9388
▁overflow	-12.9388
junction	-12.9388
coyote	-12.9388
▁Statue	-12.9388
Soldier	-12.939
NDY	-12.9555
iffel	-12.9876
draft	-12.9965
defense	-12.9965
Which	-12.9965
protect	-12.9965
▁Valentin	-13.0006
▁apparent	-13.0006
▁dancin	-13.0009
▁Mornin	-13.0009
▁McDonald	-13.0013
▁TALK	-13.0013
icentennial	-13.0013
supplied	-13.0013
uxiliary	-13.0013
▁Archdiocese	-13.0013
▁Association	-13.0013
▁Barrington	-13.0013
▁Bermuda	-13.0013
▁Commerce	-13.0013
▁Concannon	-13.0013
▁Farragut	-13.0013
▁Haddonfield	-13.0013
▁Hanukkah	-13.0013
▁Jupiter	-13.0013
▁LISTEN	-13.0013
▁LaRiviere	-13.0013
▁Liebkind	-13.0013
▁Lipnik	-13.0013
▁Lisbon	-13.0013
▁Liverpool	-13.0013
▁Magnificent	-13.0013
▁Mathilda	-13.0013
▁McCaffrey	-13.0013
▁McGovern	-13.0013
▁Meurice	-13.0013
▁Military	-13.0013
▁Miyamoto	-13.0013
▁Norwegian	-13.0013
▁Possession	-13.0013
▁Sanderson	-13.0013
▁Schumann	-13.0013
▁Snyder	-13.0013
▁Vermont	-13.0013
▁Yakushova	-13.0013
▁alimony	-13.0013
▁assumption	-13.0013
▁buffoon	-13.0013
▁challenging	-13.0013
▁collateral	-13.0013
▁condescend	-13.0013
▁crocodile	-13.0013
▁debrief	-13.0013
▁democracy	-13.0013
▁diagnose	-13.0013
▁embezzle	-13.0013
▁epidemic	-13.0013
▁extensive	-13.0013
▁fuzzy	-13.0013
▁handcuffs	-13.0013
▁implicate	-13.0013
▁indefinitely	-13.0013
▁intriguing	-13.0013
▁irritate	-13.0013
▁ketchup	-13.0013
▁leisure	-13.0013
▁limousine	-13.0013
▁mayonnaise	-13.0013
▁moderation	-13.0013
▁monstrous	-13.0013
▁obscene	-13.0013
▁penitentiary	-13.0013
▁premiere	-13.0013
▁rambling	-13.0013
▁resurrect	-13.0013
▁saliva	-13.0013
▁scruples	-13.0013
